{
  "version": "1.0",
  "truncation": null,
  "padding": null,
  "added_tokens": [
    {
      "id": 0,
      "content": "[UNK]",
      "single_word": false,
      "lstrip": false,
      "rstrip": false,
      "normalized": false,
      "special": true
    },
    {
      "id": 1,
      "content": "[PAD]",
      "single_word": false,
      "lstrip": false,
      "rstrip": false,
      "normalized": false,
      "special": true
    },
    {
      "id": 2,
      "content": "[CLS]",
      "single_word": false,
      "lstrip": false,
      "rstrip": false,
      "normalized": false,
      "special": true
    },
    {
      "id": 3,
      "content": "[SEP]",
      "single_word": false,
      "lstrip": false,
      "rstrip": false,
      "normalized": false,
      "special": true
    },
    {
      "id": 4,
      "content": "[MASK]",
      "single_word": false,
      "lstrip": false,
      "rstrip": false,
      "normalized": false,
      "special": true
    }
  ],
  "normalizer": {
    "type": "Sequence",
    "normalizers": [
      {
        "type": "NFKC"
      }
    ]
  },
  "pre_tokenizer": {
    "type": "ByteLevel",
    "add_prefix_space": true,
    "trim_offsets": true,
    "use_regex": true
  },
  "post_processor": null,
  "decoder": {
    "type": "ByteLevel",
    "add_prefix_space": true,
    "trim_offsets": true,
    "use_regex": true
  },
  "model": {
    "type": "BPE",
    "dropout": null,
    "unk_token": "[UNK]",
    "continuing_subword_prefix": null,
    "end_of_word_suffix": null,
    "fuse_unk": false,
    "byte_fallback": false,
    "ignore_merges": false,
    "vocab": {
      "[UNK]": 0,
      "[PAD]": 1,
      "[CLS]": 2,
      "[SEP]": 3,
      "[MASK]": 4,
      "!": 5,
      "\"": 6,
      "#": 7,
      "$": 8,
      "%": 9,
      "&": 10,
      "'": 11,
      "(": 12,
      ")": 13,
      "*": 14,
      "+": 15,
      ",": 16,
      "-": 17,
      ".": 18,
      "/": 19,
      "0": 20,
      "1": 21,
      "2": 22,
      "3": 23,
      "4": 24,
      "5": 25,
      "6": 26,
      "7": 27,
      "8": 28,
      "9": 29,
      ":": 30,
      ";": 31,
      "<": 32,
      "=": 33,
      ">": 34,
      "?": 35,
      "@": 36,
      "A": 37,
      "B": 38,
      "C": 39,
      "D": 40,
      "E": 41,
      "F": 42,
      "G": 43,
      "H": 44,
      "I": 45,
      "J": 46,
      "K": 47,
      "L": 48,
      "M": 49,
      "N": 50,
      "O": 51,
      "P": 52,
      "Q": 53,
      "R": 54,
      "S": 55,
      "T": 56,
      "U": 57,
      "V": 58,
      "W": 59,
      "X": 60,
      "Y": 61,
      "Z": 62,
      "[": 63,
      "\\": 64,
      "]": 65,
      "^": 66,
      "_": 67,
      "`": 68,
      "a": 69,
      "b": 70,
      "c": 71,
      "d": 72,
      "e": 73,
      "f": 74,
      "g": 75,
      "h": 76,
      "i": 77,
      "j": 78,
      "k": 79,
      "l": 80,
      "m": 81,
      "n": 82,
      "o": 83,
      "p": 84,
      "q": 85,
      "r": 86,
      "s": 87,
      "t": 88,
      "u": 89,
      "v": 90,
      "w": 91,
      "x": 92,
      "y": 93,
      "z": 94,
      "{": 95,
      "|": 96,
      "}": 97,
      "~": 98,
      "¡": 99,
      "¢": 100,
      "£": 101,
      "¤": 102,
      "¥": 103,
      "¦": 104,
      "§": 105,
      "¨": 106,
      "©": 107,
      "ª": 108,
      "«": 109,
      "¬": 110,
      "®": 111,
      "¯": 112,
      "°": 113,
      "±": 114,
      "²": 115,
      "³": 116,
      "´": 117,
      "µ": 118,
      "¶": 119,
      "·": 120,
      "¸": 121,
      "¹": 122,
      "º": 123,
      "»": 124,
      "¼": 125,
      "½": 126,
      "¾": 127,
      "¿": 128,
      "Â": 129,
      "Ã": 130,
      "Ä": 131,
      "Å": 132,
      "Æ": 133,
      "Ç": 134,
      "È": 135,
      "É": 136,
      "Ê": 137,
      "Ë": 138,
      "Ì": 139,
      "Í": 140,
      "Î": 141,
      "Ï": 142,
      "Ð": 143,
      "Ñ": 144,
      "Ò": 145,
      "Ó": 146,
      "Ô": 147,
      "Õ": 148,
      "Ö": 149,
      "×": 150,
      "Ø": 151,
      "Ù": 152,
      "Ú": 153,
      "Û": 154,
      "Ü": 155,
      "Ý": 156,
      "à": 157,
      "á": 158,
      "â": 159,
      "ã": 160,
      "ä": 161,
      "å": 162,
      "æ": 163,
      "ç": 164,
      "è": 165,
      "é": 166,
      "ê": 167,
      "ë": 168,
      "ì": 169,
      "í": 170,
      "ï": 171,
      "ð": 172,
      "Ċ": 173,
      "Ġ": 174,
      "Ģ": 175,
      "ģ": 176,
      "Ĥ": 177,
      "ĥ": 178,
      "Ħ": 179,
      "ħ": 180,
      "Ĩ": 181,
      "ĩ": 182,
      "Ī": 183,
      "ī": 184,
      "Ĭ": 185,
      "ĭ": 186,
      "Į": 187,
      "į": 188,
      "İ": 189,
      "ı": 190,
      "Ĳ": 191,
      "ĳ": 192,
      "Ĵ": 193,
      "ĵ": 194,
      "Ķ": 195,
      "ķ": 196,
      "ĸ": 197,
      "Ĺ": 198,
      "ĺ": 199,
      "Ļ": 200,
      "ļ": 201,
      "Ľ": 202,
      "ľ": 203,
      "Ŀ": 204,
      "ŀ": 205,
      "Ł": 206,
      "ł": 207,
      "Ń": 208,
      "Ġt": 209,
      "he": 210,
      "Ġa": 211,
      "in": 212,
      "Ġthe": 213,
      "er": 214,
      "on": 215,
      "Ġ,": 216,
      "re": 217,
      "Ġs": 218,
      "ed": 219,
      "Ġw": 220,
      "Ġo": 221,
      "nd": 222,
      "at": 223,
      "Ġ.": 224,
      "or": 225,
      "en": 226,
      "Ġc": 227,
      "it": 228,
      "Ġf": 229,
      "is": 230,
      "es": 231,
      "ar": 232,
      "Ġb": 233,
      "Ġof": 234,
      "an": 235,
      "Ġin": 236,
      "al": 237,
      "ing": 238,
      "Ġp": 239,
      "as": 240,
      "Ġand": 241,
      "ĠĊ": 242,
      "Ġto": 243,
      "ic": 244,
      "ro": 245,
      "Ġm": 246,
      "Ġd": 247,
      "Ġh": 248,
      "ion": 249,
      "le": 250,
      "ou": 251,
      "ĠT": 252,
      "Ġre": 253,
      "Ġ=": 254,
      "ĠS": 255,
      "il": 256,
      "ĠA": 257,
      "ent": 258,
      "Ġ\"": 259,
      "Ġ1": 260,
      "Ġth": 261,
      "st": 262,
      "el": 263,
      "ĠC": 264,
      "Ġl": 265,
      "Ġ@": 266,
      "om": 267,
      "Ġe": 268,
      "am": 269,
      "Ġn": 270,
      "ad": 271,
      "ac": 272,
      "Ġwas": 273,
      "ĠM": 274,
      "ĠB": 275,
      "ec": 276,
      "Ġon": 277,
      "ĠThe": 278,
      "ly": 279,
      "ur": 280,
      "Ġ'": 281,
      "et": 282,
      "id": 283,
      "ol": 284,
      "Ġg": 285,
      "im": 286,
      "ĠI": 287,
      "-@": 288,
      "Ġ@-@": 289,
      "Ġfor": 290,
      "ir": 291,
      "ig": 292,
      "iv": 293,
      "ot": 294,
      "ter": 295,
      "ĠH": 296,
      "ut": 297,
      "Ġas": 298,
      "us": 299,
      "ow": 300,
      "ith": 301,
      "ay": 302,
      "Ġ2": 303,
      "ĠP": 304,
      "Ġst": 305,
      "Ġhe": 306,
      "ver": 307,
      "ation": 308,
      "Ġwith": 309,
      "Ġbe": 310,
      "ĠR": 311,
      "Ġthat": 312,
      "ĠD": 313,
      "ce": 314,
      "un": 315,
      "em": 316,
      "ĠW": 317,
      "Ġwh": 318,
      "ĠF": 319,
      "ch": 320,
      "Ġby": 321,
      "th": 322,
      "Ġal": 323,
      "Ġ)": 324,
      "Ġ(": 325,
      "ĠL": 326,
      "ul": 327,
      "ĠG": 328,
      "Ġis": 329,
      "Ġcon": 330,
      "ers": 331,
      "Ġat": 332,
      "ct": 333,
      "ĠN": 334,
      "ra": 335,
      "os": 336,
      "Ġ19": 337,
      "Ġan": 338,
      "Ġit": 339,
      "her": 340,
      "rom": 341,
      "and": 342,
      "um": 343,
      "ĠJ": 344,
      "est": 345,
      "00": 346,
      "Ġhis": 347,
      "ĠE": 348,
      "ag": 349,
      "av": 350,
      "ain": 351,
      "ri": 352,
      "od": 353,
      "Ġfrom": 354,
      "ĠO": 355,
      "ist": 356,
      "Ġcom": 357,
      "Ġv": 358,
      "Ġpro": 359,
      "op": 360,
      "ill": 361,
      "ore": 362,
      "if": 363,
      "ld": 364,
      "up": 365,
      "Ġr": 366,
      "ew": 367,
      "ere": 368,
      "res": 369,
      "igh": 370,
      "ĠIn": 371,
      "ies": 372,
      "Ġde": 373,
      "ber": 374,
      "art": 375,
      "ard": 376,
      "ort": 377,
      "Ġse": 378,
      "ich": 379,
      "Ġwere": 380,
      "ate": 381,
      "all": 382,
      "ak": 383,
      "ant": 384,
      "oc": 385,
      "ud": 386,
      "ap": 387,
      "Ġex": 388,
      "qu": 389,
      "ong": 390,
      "ab": 391,
      "Ġch": 392,
      "Ġor": 393,
      "ĠK": 394,
      "gh": 395,
      "ear": 396,
      "ess": 397,
      "ated": 398,
      "Ġpl": 399,
      "Ġsh": 400,
      "ity": 401,
      "ip": 402,
      "ive": 403,
      "ame": 404,
      "ĠU": 405,
      "Ġâ": 406,
      "Ġhad": 407,
      "ect": 408,
      "ack": 409,
      "ĠSt": 410,
      "Ġsu": 411,
      "ĠâĢ": 412,
      "ast": 413,
      "se": 414,
      "red": 415,
      "Ġk": 416,
      "ge": 417,
      "Ġwhich": 418,
      "our": 419,
      "ment": 420,
      "Ġle": 421,
      "und": 422,
      "Ġare": 423,
      "ov": 424,
      "ian": 425,
      "ial": 426,
      "Ġnot": 427,
      "ell": 428,
      "Ġsp": 429,
      "ost": 430,
      "Ġy": 431,
      "ight": 432,
      "ia": 433,
      "ord": 434,
      "ust": 435,
      "ary": 436,
      "ine": 437,
      "ther": 438,
      "pt": 439,
      "rit": 440,
      "Ġ3": 441,
      "oun": 442,
      "pp": 443,
      "ical": 444,
      "ĠCh": 445,
      "ave": 446,
      "Ġun": 447,
      "Ġ200": 448,
      "cc": 449,
      "Ġinc": 450,
      "fter": 451,
      "ould": 452,
      "ĠV": 453,
      "Ġbut": 454,
      "irst": 455,
      "ish": 456,
      "ous": 457,
      "te": 458,
      "ff": 459,
      "ions": 460,
      "so": 461,
      "Ġcomp": 462,
      "Ġ20": 463,
      "ide": 464,
      "Ġro": 465,
      "ure": 466,
      "Ġwhe": 467,
      "ub": 468,
      "Ġar": 469,
      "Ġcont": 470,
      "ie": 471,
      "Ġ;": 472,
      "og": 473,
      "ign": 474,
      "Ġfirst": 475,
      "Ġcl": 476,
      "wo": 477,
      "Ġher": 478,
      "ry": 479,
      "ue": 480,
      "Ġits": 481,
      "ass": 482,
      "Ġtheir": 483,
      "orm": 484,
      "ĠâĢĵ": 485,
      "ok": 486,
      "ork": 487,
      "Ġint": 488,
      "Ġres": 489,
      "ĠHe": 490,
      "Ġ:": 491,
      "ater": 492,
      "Ġalso": 493,
      "Ġab": 494,
      "ond": 495,
      "Ġad": 496,
      "ome": 497,
      "out": 498,
      "ran": 499,
      "mer": 500,
      "ire": 501,
      "hed": 502,
      "ru": 503,
      "Ġus": 504,
      "age": 505,
      "du": 506,
      "Ġ4": 507,
      "ime": 508,
      "low": 509,
      "Ġper": 510,
      "per": 511,
      "Ġwho": 512,
      "Ġ5": 513,
      "ĠTh": 514,
      "Ġone": 515,
      "Ġhave": 516,
      "Ġsc": 517,
      "pl": 518,
      "ally": 519,
      "own": 520,
      "ile": 521,
      "Ġrec": 522,
      "Ġ18": 523,
      "ted": 524,
      ".@": 525,
      "Ġ@.@": 526,
      "Ġtwo": 527,
      "ition": 528,
      "ugh": 529,
      "iz": 530,
      "ree": 531,
      "ence": 532,
      "ts": 533,
      "uring": 534,
      "port": 535,
      "Ġbeen": 536,
      "Ġpart": 537,
      "Ġbec": 538,
      "ice": 539,
      "Ġhas": 540,
      "ĠAl": 541,
      "Ġag": 542,
      "Ġapp": 543,
      "Ġ201": 544,
      "ough": 545,
      ",@": 546,
      "Ġ@,@": 547,
      "Ġj": 548,
      "Ġen": 549,
      "Ġdis": 550,
      "lud": 551,
      "ke": 552,
      "Ġover": 553,
      "Ġser": 554,
      "Ġthis": 555,
      "ory": 556,
      "ely": 557,
      "Ġyear": 558,
      "ations": 559,
      "ember": 560,
      "ren": 561,
      "ction": 562,
      "ound": 563,
      "ach": 564,
      "Ġoff": 565,
      "Ġafter": 566,
      "ric": 567,
      "Ġup": 568,
      "land": 569,
      "Ġplay": 570,
      "Ġdes": 571,
      "ace": 572,
      "ĠIt": 573,
      "ark": 574,
      "over": 575,
      "ance": 576,
      "Ġout": 577,
      "Ġthey": 578,
      "Ġman": 579,
      "ade": 580,
      "Ġte": 581,
      "act": 582,
      "Ġother": 583,
      "ib": 584,
      "man": 585,
      "ult": 586,
      "Ġim": 587,
      "ĠY": 588,
      "ph": 589,
      "ress": 590,
      "Ġinclud": 591,
      "ced": 592,
      "ens": 593,
      "urn": 594,
      "wn": 595,
      "Ġwould": 596,
      "ind": 597,
      "Ġtime": 598,
      "one": 599,
      "Ġpre": 600,
      "Ġinto": 601,
      "vel": 602,
      "ĠOn": 603,
      "ĠUn": 604,
      "ward": 605,
      "we": 606,
      "Ġwe": 607,
      "Ġhim": 608,
      "ite": 609,
      "oin": 610,
      "ates": 611,
      "Ġ6": 612,
      "Ġshe": 613,
      "les": 614,
      "Ġev": 615,
      "ilm": 616,
      "Ġatt": 617,
      "ased": 618,
      "Ġne": 619,
      "ited": 620,
      "able": 621,
      "end": 622,
      "ied": 623,
      "ase": 624,
      "amp": 625,
      "Ġcomm": 626,
      "ors": 627,
      "Ġinter": 628,
      "are": 629,
      "rough": 630,
      "oy": 631,
      "ons": 632,
      "ount": 633,
      "ep": 634,
      "form": 635,
      "Ġall": 636,
      "ose": 637,
      "ood": 638,
      "ang": 639,
      "Ġmore": 640,
      "ces": 641,
      "Ġwork": 642,
      "Ġ7": 643,
      "ail": 644,
      "old": 645,
      "aw": 646,
      "ered": 647,
      "ings": 648,
      "ve": 649,
      "ild": 650,
      "ĠAn": 651,
      "Ġnew": 652,
      "Ġsec": 653,
      "Ġbet": 654,
      "Ġwhen": 655,
      "inal": 656,
      "Ġfe": 657,
      "Ġfilm": 658,
      "ick": 659,
      "vi": 660,
      "ents": 661,
      "ĠSe": 662,
      "way": 663,
      "att": 664,
      "ft": 665,
      "iss": 666,
      "aus": 667,
      "fer": 668,
      "Ġ8": 669,
      "gan": 670,
      "ĠMar": 671,
      "reat": 672,
      "rib": 673,
      "Ġcons": 674,
      "ĠAr": 675,
      "round": 676,
      "ake": 677,
      "Ġrem": 678,
      "ved": 679,
      "Ġtr": 680,
      "Ġdec": 681,
      "ason": 682,
      "ans": 683,
      "Ġduring": 684,
      "Ġund": 685,
      "orth": 686,
      "ubl": 687,
      "Ġ9": 688,
      "hip": 689,
      "Ġagain": 690,
      "ĠAs": 691,
      "Ġmost": 692,
      "Ġgame": 693,
      "oth": 694,
      "Ġthem": 695,
      "Ġ199": 696,
      "Ġonly": 697,
      "Ġpr": 698,
      "ath": 699,
      "ween": 700,
      "ix": 701,
      "Ġear": 702,
      "ollow": 703,
      "Ġthan": 704,
      "ob": 705,
      "rop": 706,
      "Ġsup": 707,
      "ational": 708,
      "fore": 709,
      "ĠNew": 710,
      "Ġabout": 711,
      "Ġprodu": 712,
      "ug": 713,
      "Ġcent": 714,
      "tern": 715,
      "Ġkn": 716,
      "Ġret": 717,
      "ey": 718,
      "Ġchar": 719,
      "Ġsong": 720,
      "Ġcan": 721,
      "outh": 722,
      "Ġbetween": 723,
      "Ġlater": 724,
      "orn": 725,
      "Ġrele": 726,
      "Ġunder": 727,
      "ict": 728,
      "Ġthree": 729,
      "hn": 730,
      "ton": 731,
      "Ġcol": 732,
      "ron": 733,
      "Ġact": 734,
      "Ġ00": 735,
      "als": 736,
      "Ġqu": 737,
      "Ġthrough": 738,
      "ĠEn": 739,
      "orld": 740,
      "ook": 741,
      "Ġnum": 742,
      "Ġso": 743,
      "Ġme": 744,
      "Ġacc": 745,
      "Ġrel": 746,
      "Ġwhile": 747,
      "Ġra": 748,
      "Ġend": 749,
      "meric": 750,
      "ĠLe": 751,
      "lect": 752,
      "ĠAmeric": 753,
      "Ġfl": 754,
      "ters": 755,
      "ock": 756,
      "Ġpos": 757,
      "ral": 758,
      "Ġsub": 759,
      "ever": 760,
      "ular": 761,
      "Ġass": 762,
      "ating": 763,
      "Ġwhere": 764,
      "Ġver": 765,
      "Ġday": 766,
      "ck": 767,
      "Ġreg": 768,
      "Ġsecond": 769,
      "ener": 770,
      "aid": 771,
      "Ġbu": 772,
      "ĠCom": 773,
      "Ġmade": 774,
      "ames": 775,
      "ision": 776,
      "ived": 777,
      "ĠRe": 778,
      "Ġpe": 779,
      "hes": 780,
      "Ġrecord": 781,
      "son": 782,
      "Ġdef": 783,
      "bum": 784,
      "Ġfour": 785,
      "Ġgro": 786,
      "Ġfollow": 787,
      "Ġseason": 788,
      "Ġ000": 789,
      "Ġep": 790,
      "Ġform": 791,
      "Ġsome": 792,
      "Ġsuch": 793,
      "Ġam": 794,
      "ool": 795,
      "ished": 796,
      "Ġmov": 797,
      "Ġbefore": 798,
      "Ġtra": 799,
      "Ġmus": 800,
      "ĠSp": 801,
      "Ġthere": 802,
      "Ġwrit": 803,
      "hen": 804,
      "ics": 805,
      "ĠJo": 806,
      "io": 807,
      "Ġspec": 808,
      "iel": 809,
      "Ġ10": 810,
      "ike": 811,
      "Ġsy": 812,
      "Ġyears": 813,
      "Ġteam": 814,
      "ĠAt": 815,
      "ode": 816,
      "ual": 817,
      "ĠThis": 818,
      "ident": 819,
      "Ġ/": 820,
      "Ġlar": 821,
      "Ġalbum": 822,
      "ĠSh": 823,
      "Ġind": 824,
      "ros": 825,
      "ily": 826,
      "owever": 827,
      "Ġent": 828,
      "ning": 829,
      "Ġused": 830,
      "Ġcall": 831,
      "ank": 832,
      "Ġsur": 833,
      "ific": 834,
      "Ġac": 835,
      "Ġhigh": 836,
      "ury": 837,
      "Ġpubl": 838,
      "Ġbeing": 839,
      "Ġepis": 840,
      "ained": 841,
      "Ġthen": 842,
      "led": 843,
      "ten": 844,
      "velop": 845,
      "aj": 846,
      "Ġdo": 847,
      "Ġloc": 848,
      "Ġexp": 849,
      "ife": 850,
      "ris": 851,
      "Ġ17": 852,
      "Ġagainst": 853,
      "Ġinv": 854,
      "Ġ0": 855,
      "Ġbl": 856,
      "Ġpres": 857,
      "Ġshow": 858,
      "other": 859,
      "Ġnumber": 860,
      "ĠAfter": 861,
      "Ġcharac": 862,
      "ious": 863,
      "Ġsever": 864,
      "Ġadd": 865,
      "Ġco": 866,
      "Ġset": 867,
      "ek": 868,
      "ince": 869,
      "ject": 870,
      "ars": 871,
      "Ġbecame": 872,
      "Ġrece": 873,
      "ĠBrit": 874,
      "ause": 875,
      "Ġlead": 876,
      "Ġperform": 877,
      "Ġno": 878,
      "Ġincluding": 879,
      "Ġsing": 880,
      "ather": 881,
      "ins": 882,
      "ĠâĢĶ": 883,
      "ines": 884,
      "Ġfound": 885,
      "ĠUnited": 886,
      "rans": 887,
      "air": 888,
      "Ġwell": 889,
      "ale": 890,
      "Ġmon": 891,
      "Ġrep": 892,
      "ĠSc": 893,
      "Ġpol": 894,
      "Ġback": 895,
      "Ġboth": 896,
      "ier": 897,
      "Ġcap": 898,
      "Ġ198": 899,
      "Ġseries": 900,
      "Ġ15": 901,
      "Ġ12": 902,
      "ober": 903,
      "ram": 904,
      "ĠCon": 905,
      "ik": 906,
      "ower": 907,
      "Ġship": 908,
      "ement": 909,
      "its": 910,
      "ert": 911,
      "ired": 912,
      "ures": 913,
      "ley": 914,
      "ĠWh": 915,
      "ĠShe": 916,
      "ivers": 917,
      "Ġmain": 918,
      "pen": 919,
      "Ġ194": 920,
      "Ġmin": 921,
      "iet": 922,
      "der": 923,
      "overn": 924,
      "Ġdid": 925,
      "ven": 926,
      "Ġgo": 927,
      "Ġcre": 928,
      "elf": 929,
      "olog": 930,
      "Ġimp": 931,
      "Ġdevelop": 932,
      "Ġmet": 933,
      "az": 934,
      "ities": 935,
      "ĠEng": 936,
      "Ġlong": 937,
      "iver": 938,
      "any": 939,
      "ll": 940,
      "ised": 941,
      "erm": 942,
      "ting": 943,
      "uch": 944,
      "ared": 945,
      "ann": 946,
      "ane": 947,
      "ird": 948,
      "Ġem": 949,
      "ĠJohn": 950,
      "Ġmill": 951,
      "ful": 952,
      "Ġair": 953,
      "Ġmat": 954,
      "Ġepisode": 955,
      "tend": 956,
      "irect": 957,
      "Ġsaid": 958,
      "Ġstud": 959,
      "Ġmany": 960,
      "ute": 961,
      "Ġbro": 962,
      "ash": 963,
      "ative": 964,
      "Ġdep": 965,
      "Ġcar": 966,
      "Ġ16": 967,
      "Ġcould": 968,
      "Ġorig": 969,
      "Ġwar": 970,
      "Ġcontin": 971,
      "ĠCl": 972,
      "Ġseveral": 973,
      "ĠAmerican": 974,
      "though": 975,
      "Ġdif": 976,
      "ĠInd": 977,
      "ield": 978,
      "ah": 979,
      "Ġinst": 980,
      "Ġpop": 981,
      "ouse": 982,
      "ise": 983,
      "emb": 984,
      "Ġknown": 985,
      "Ġ197": 986,
      "ty": 987,
      "ually": 988,
      "Ġ196": 989,
      "ĠAust": 990,
      "Ġ11": 991,
      "Ġconc": 992,
      "til": 993,
      "iam": 994,
      "ĠWar": 995,
      "view": 996,
      "erson": 997,
      "Ġob": 998,
      "ued": 999,
      "ĠGer": 1000,
      "Ġsm": 1001,
      "Ġreturn": 1002,
      "Ġany": 1003,
      "Ġbegan": 1004,
      "ĠZ": 1005,
      "ern": 1006,
      "Ġcomple": 1007,
      "Ġdesign": 1008,
      "ĠDe": 1009,
      "Ġdesc": 1010,
      "Ġsign": 1011,
      "ople": 1012,
      "chool": 1013,
      "ross": 1014,
      "my": 1015,
      "ism": 1016,
      "oot": 1017,
      "Ġest": 1018,
      "Ġtrans": 1019,
      "ccess": 1020,
      "Ġprov": 1021,
      "aking": 1022,
      "Ġfeat": 1023,
      "ĠBl": 1024,
      "ided": 1025,
      "Ġinf": 1026,
      "anc": 1027,
      "Ġrun": 1028,
      "Ġearly": 1029,
      "Ġart": 1030,
      "ized": 1031,
      "Ġdist": 1032,
      "Ġmusic": 1033,
      "Ġown": 1034,
      "Ġnear": 1035,
      "Ġreleased": 1036,
      "Ġuntil": 1037,
      "Ġcalled": 1038,
      "Ġeff": 1039,
      "ĠCol": 1040,
      "imes": 1041,
      "ĠUS": 1042,
      "rid": 1043,
      "ists": 1044,
      "Ġresp": 1045,
      "une": 1046,
      "Ġbel": 1047,
      "enn": 1048,
      "Ġpass": 1049,
      "stem": 1050,
      "ured": 1051,
      "Ġfin": 1052,
      "ially": 1053,
      "ĠMay": 1054,
      "Ġph": 1055,
      "ution": 1056,
      "Ġdown": 1057,
      "Ġdisc": 1058,
      "ments": 1059,
      "Ġcrit": 1060,
      "osed": 1061,
      "xt": 1062,
      "Ġdirect": 1063,
      "Ġgener": 1064,
      "Ġalong": 1065,
      "ium": 1066,
      "Ġins": 1067,
      "Ġmillion": 1068,
      "ger": 1069,
      "ull": 1070,
      "ĠBritish": 1071,
      "ax": 1072,
      "Ġgroup": 1073,
      "Ġoffic": 1074,
      "vent": 1075,
      "ĠGerman": 1076,
      "Ġ13": 1077,
      "Ġfam": 1078,
      "eb": 1079,
      "Ġthese": 1080,
      "ajor": 1081,
      "Ġmod": 1082,
      "Ġmay": 1083,
      "Ġ$": 1084,
      "cept": 1085,
      "ĠAd": 1086,
      "Ġopen": 1087,
      "ange": 1088,
      "Ġmil": 1089,
      "ĠBe": 1090,
      "Ġpoin": 1091,
      "uc": 1092,
      "gg": 1093,
      "Ġland": 1094,
      "Ġsim": 1095,
      "Ġhist": 1096,
      "ĠAug": 1097,
      "Ġgovern": 1098,
      "Ã©": 1099,
      "ĠSept": 1100,
      "Ġsuccess": 1101,
      "ĠSeptember": 1102,
      "ĠAugust": 1103,
      "ets": 1104,
      "ĠAp": 1105,
      "ĠWorld": 1106,
      "ĠStates": 1107,
      "ible": 1108,
      "ink": 1109,
      "erv": 1110,
      "Ġgu": 1111,
      "Ġoper": 1112,
      "Ġcount": 1113,
      "Ġattack": 1114,
      "Ġuse": 1115,
      "Ġsame": 1116,
      "ys": 1117,
      "wards": 1118,
      "Ġdescrib": 1119,
      "Ġpeople": 1120,
      "ĠIs": 1121,
      "ĠFor": 1122,
      "aced": 1123,
      "Ġcharacter": 1124,
      "yp": 1125,
      "amed": 1126,
      "Ġbecause": 1127,
      "ĠAll": 1128,
      "els": 1129,
      "Ġvi": 1130,
      "Ġ14": 1131,
      "Ġlike": 1132,
      "Ġserv": 1133,
      "ĠJu": 1134,
      "ĠFran": 1135,
      "ged": 1136,
      "Ġaround": 1137,
      "Ġstart": 1138,
      "Ġthough": 1139,
      "Ġed": 1140,
      "Ġ195": 1141,
      "ĠPl": 1142,
      "ĠQ": 1143,
      "ner": 1144,
      "Ġwin": 1145,
      "Ġkm": 1146,
      "Ġconst": 1147,
      "ues": 1148,
      "ring": 1149,
      "Ġtook": 1150,
      "Ġocc": 1151,
      "ruct": 1152,
      "aving": 1153,
      "ĠAustral": 1154,
      "Ġbatt": 1155,
      "ĠOct": 1156,
      "Ġann": 1157,
      "Ġsupport": 1158,
      "ove": 1159,
      "ĠNov": 1160,
      "Ġfollowing": 1161,
      "Ġsix": 1162,
      "Ġnorth": 1163,
      "Ġele": 1164,
      "ĠCar": 1165,
      "Ġ193": 1166,
      "ĠHowever": 1167,
      "Ġsystem": 1168,
      "Ġappear": 1169,
      "uss": 1170,
      "Ġfinal": 1171,
      "Ġreceived": 1172,
      "Ġclass": 1173,
      "ined": 1174,
      "ĠOctober": 1175,
      "Ġhead": 1176,
      "ives": 1177,
      "Ġprom": 1178,
      "Ġconsid": 1179,
      "ene": 1180,
      "ants": 1181,
      "rad": 1182,
      "ling": 1183,
      "ility": 1184,
      "ically": 1185,
      "ĠDec": 1186,
      "ĠPro": 1187,
      "Ġ191": 1188,
      "Ġever": 1189,
      "Ġstate": 1190,
      "Ġbuild": 1191,
      "ret": 1192,
      "Ġeach": 1193,
      "anu": 1194,
      "Ġext": 1195,
      "Ġfive": 1196,
      "rist": 1197,
      "Ġaut": 1198,
      "rol": 1199,
      "ĠYork": 1200,
      "Ġcentury": 1201,
      "ina": 1202,
      "Ġvar": 1203,
      "Ġbo": 1204,
      "Ġwill": 1205,
      "Ġarea": 1206,
      "ĠThey": 1207,
      "ately": 1208,
      "Ġsmall": 1209,
      "get": 1210,
      "oss": 1211,
      "Ġpartic": 1212,
      "Ġlife": 1213,
      "ĠNorth": 1214,
      "iving": 1215,
      "ril": 1216,
      "Ġreport": 1217,
      "Ġ]": 1218,
      "ĠMe": 1219,
      "Ġ[": 1220,
      "tle": 1221,
      "ored": 1222,
      "ĠBy": 1223,
      "ĠJune": 1224,
      "ians": 1225,
      "ording": 1226,
      "Ġcity": 1227,
      "gin": 1228,
      "Ġmar": 1229,
      "ped": 1230,
      "ĠKing": 1231,
      "Ġmajor": 1232,
      "Ġweek": 1233,
      "Ġpublic": 1234,
      "ĠJuly": 1235,
      "Ġ%": 1236,
      "ission": 1237,
      "Ġconf": 1238,
      "ĠHar": 1239,
      "Ġband": 1240,
      "ection": 1241,
      "Ġref": 1242,
      "med": 1243,
      "ĠNovember": 1244,
      "inc": 1245,
      "urch": 1246,
      "Ġrest": 1247,
      "ĠComm": 1248,
      "ĠWill": 1249,
      "Ġworld": 1250,
      "ĠPh": 1251,
      "Ġmed": 1252,
      "Ġsince": 1253,
      "esp": 1254,
      "Ġsingle": 1255,
      "raft": 1256,
      "raph": 1257,
      "por": 1258,
      "ĠApril": 1259,
      "ble": 1260,
      "ĠMc": 1261,
      "ains": 1262,
      "ried": 1263,
      "lish": 1264,
      "Ġdet": 1265,
      "ĠMarch": 1266,
      "omet": 1267,
      "Ġjust": 1268,
      "Ġlast": 1269,
      "ected": 1270,
      "ural": 1271,
      "..": 1272,
      "ional": 1273,
      "hest": 1274,
      "ĠEd": 1275,
      "aim": 1276,
      "Ġturn": 1277,
      "ively": 1278,
      "Ġhel": 1279,
      "ilt": 1280,
      "Ġallow": 1281,
      "Ġpo": 1282,
      "ĠCan": 1283,
      "Ġ30": 1284,
      "cl": 1285,
      "ient": 1286,
      "vious": 1287,
      "ĠGe": 1288,
      "Ġleft": 1289,
      "Ġlarge": 1290,
      "Ġline": 1291,
      "ats": 1292,
      "Ġdiffer": 1293,
      "ales": 1294,
      "ĠSouth": 1295,
      "Ġcare": 1296,
      "Ġsouth": 1297,
      "Ġadv": 1298,
      "ified": 1299,
      "ĠDuring": 1300,
      "Ġ...": 1301,
      "Ġdr": 1302,
      "Ġstr": 1303,
      "Ġbook": 1304,
      "Ġvers": 1305,
      "empt": 1306,
      "Ġschool": 1307,
      "Ġsl": 1308,
      "ague": 1309,
      "ĠDecember": 1310,
      "Ġthird": 1311,
      "avy": 1312,
      "Ġincre": 1313,
      "Ġ25": 1314,
      "Ġmonth": 1315,
      "Ġdue": 1316,
      "Ġappro": 1317,
      "Ġplayed": 1318,
      "Ġmuch": 1319,
      "Ġevent": 1320,
      "row": 1321,
      "ĠPr": 1322,
      "Ġif": 1323,
      "rote": 1324,
      "Ġanother": 1325,
      "ĠJanu": 1326,
      "Ġ192": 1327,
      "ĠJanuary": 1328,
      "Ġincluded": 1329,
      "Ġwhat": 1330,
      "Ġplace": 1331,
      "Ġbased": 1332,
      "Ġshort": 1333,
      "ne": 1334,
      "ĠII": 1335,
      "ony": 1336,
      "Ġexpl": 1337,
      "Ġgovernment": 1338,
      "Ġperson": 1339,
      "ball": 1340,
      "Ġwrote": 1341,
      "ĠWhen": 1342,
      "Ġtrack": 1343,
      "apan": 1344,
      "Ġcamp": 1345,
      "Ġtit": 1346,
      "Ġold": 1347,
      "ĠEu": 1348,
      "Ġbre": 1349,
      "alf": 1350,
      "Ġname": 1351,
      "Ġdeath": 1352,
      "Ġport": 1353,
      "Ġelect": 1354,
      "ently": 1355,
      "ple": 1356,
      "rent": 1357,
      "ĠJapan": 1358,
      "ience": 1359,
      "Ġeng": 1360,
      "Ġwon": 1361,
      "by": 1362,
      "ĠOr": 1363,
      "Ġchild": 1364,
      "Ġprot": 1365,
      "Ġlit": 1366,
      "Ġkill": 1367,
      "Ġprog": 1368,
      "oad": 1369,
      "Ġstory": 1370,
      "ideo": 1371,
      "ages": 1372,
      "Ġpower": 1373,
      "ĠBro": 1374,
      "Ġreview": 1375,
      "ĠTe": 1376,
      "ody": 1377,
      "Ġvis": 1378,
      "ital": 1379,
      "Ġhome": 1380,
      "ott": 1381,
      "Ġled": 1382,
      "ps": 1383,
      "Ġdescribed": 1384,
      "eng": 1385,
      "Ġrequ": 1386,
      "oman": 1387,
      "Ġprevious": 1388,
      "Ġfamily": 1389,
      "Ġgun": 1390,
      "rand": 1391,
      "tain": 1392,
      "Ġway": 1393,
      "yl": 1394,
      "Ġnamed": 1395,
      "Ġright": 1396,
      "Ġnow": 1397,
      "ĠMus": 1398,
      "Ġdem": 1399,
      "urther": 1400,
      "iod": 1401,
      "iven": 1402,
      "Ġmen": 1403,
      "ilar": 1404,
      "Ġeven": 1405,
      "Ġmake": 1406,
      "embers": 1407,
      "Ġorgan": 1408,
      "ĠGu": 1409,
      "reen": 1410,
      "ister": 1411,
      "ont": 1412,
      "cy": 1413,
      "iversity": 1414,
      "omin": 1415,
      "Ġattempt": 1416,
      "Ġbest": 1417,
      "itions": 1418,
      "Ġ100": 1419,
      "Ġcour": 1420,
      "Ġrepl": 1421,
      "ivision": 1422,
      "Ġopp": 1423,
      "Ġleg": 1424,
      "rench": 1425,
      "Ġgames": 1426,
      "ior": 1427,
      "ached": 1428,
      "Ġterm": 1429,
      "ĠAnd": 1430,
      "Ġcommand": 1431,
      "ival": 1432,
      "Ġhand": 1433,
      "ĠFl": 1434,
      "Ġposs": 1435,
      "mp": 1436,
      "Ġbelie": 1437,
      "Ġdam": 1438,
      "Ġvery": 1439,
      "ox": 1440,
      "ĠHis": 1441,
      "Ġthose": 1442,
      "ĠFeb": 1443,
      "ĠEurop": 1444,
      "Ġpar": 1445,
      "ĠFebru": 1446,
      "ĠFebruary": 1447,
      "sh": 1448,
      "Ġiss": 1449,
      "Ġstill": 1450,
      "Ġtop": 1451,
      "Ġnext": 1452,
      "Ġspecies": 1453,
      "ĠChrist": 1454,
      "Ġeffect": 1455,
      "riend": 1456,
      "Ġview": 1457,
      "ched": 1458,
      "ĠThere": 1459,
      "ĠNational": 1460,
      "oci": 1461,
      "Ġoriginal": 1462,
      "aken": 1463,
      "ĠWe": 1464,
      "ature": 1465,
      "ences": 1466,
      "Ġspe": 1467,
      "lu": 1468,
      "Ġwater": 1469,
      "ness": 1470,
      "Ġaddition": 1471,
      "Ġjoin": 1472,
      "ĠBar": 1473,
      "ĠEurope": 1474,
      "Ġlist": 1475,
      "au": 1476,
      "Ġperiod": 1477,
      "Ġwithin": 1478,
      "alk": 1479,
      "Ġmembers": 1480,
      "Ġmark": 1481,
      "eter": 1482,
      "Ġdeb": 1483,
      "Ġheld": 1484,
      "Ġbuilt": 1485,
      "ĠFrench": 1486,
      "Ġexper": 1487,
      "hor": 1488,
      "af": 1489,
      "ĠAm": 1490,
      "Ġ2010": 1491,
      "Ġrelease": 1492,
      "ĠPar": 1493,
      "Ġlate": 1494,
      "Ġalthough": 1495,
      "Ġformer": 1496,
      "rew": 1497,
      "Ġmatch": 1498,
      "Ġgreat": 1499,
      "augh": 1500,
      "ridge": 1501,
      "ney": 1502,
      "Ġcur": 1503,
      "Ġdest": 1504,
      "Ġsold": 1505,
      "uted": 1506,
      "tended": 1507,
      "Ġvideo": 1508,
      "Ġ21": 1509,
      "ards": 1510,
      "Ġcaus": 1511,
      "ĠWest": 1512,
      "line": 1513,
      "Ġstorm": 1514,
      "Ġcover": 1515,
      "ĠX": 1516,
      "ves": 1517,
      "ech": 1518,
      "Ġinit": 1519,
      "Ġrole": 1520,
      "ropical": 1521,
      "Ġtri": 1522,
      "ĠWilliam": 1523,
      "self": 1524,
      "Ġcame": 1525,
      "Ġestab": 1526,
      "hel": 1527,
      "ĠHer": 1528,
      "Ġdays": 1529,
      "ances": 1530,
      "Ġresult": 1531,
      "Ġmid": 1532,
      "Ġpresent": 1533,
      "ĠÂ": 1534,
      "na": 1535,
      "lev": 1536,
      "Ġcontrol": 1537,
      "aged": 1538,
      "ption": 1539,
      "oon": 1540,
      "ulation": 1541,
      "Ġstand": 1542,
      "Ġreal": 1543,
      "Ġpolit": 1544,
      "Ġhowever": 1545,
      "ĠMin": 1546,
      "itary": 1547,
      "aster": 1548,
      "ham": 1549,
      "Ġ2008": 1550,
      "Ġprop": 1551,
      "let": 1552,
      "ense": 1553,
      "Ġ2009": 1554,
      "ĠMan": 1555,
      "atic": 1556,
      "ides": 1557,
      "Ġfew": 1558,
      "Ġtown": 1559,
      "Ġ24": 1560,
      "Ġwind": 1561,
      "ĠGeor": 1562,
      "omb": 1563,
      "Ġyou": 1564,
      "ograph": 1565,
      "Ġtw": 1566,
      "Ġside": 1567,
      "Ġsk": 1568,
      "Ġcontinued": 1569,
      "Ġoften": 1570,
      "Ġequ": 1571,
      "Ġpost": 1572,
      "ĠEar": 1573,
      "ays": 1574,
      "Ġlocal": 1575,
      "Ġ2011": 1576,
      "elt": 1577,
      "ĠChar": 1578,
      "ator": 1579,
      "Ġamong": 1580,
      "ĠAir": 1581,
      "Ġsimilar": 1582,
      "ruction": 1583,
      "ead": 1584,
      "ches": 1585,
      "ĠMich": 1586,
      "ract": 1587,
      "Ġhum": 1588,
      "Ġav": 1589,
      "Ġclaim": 1590,
      "ĠNo": 1591,
      "estern": 1592,
      "omen": 1593,
      "Ġ&": 1594,
      "ung": 1595,
      "ĠEngland": 1596,
      "reet": 1597,
      "read": 1598,
      "akes": 1599,
      "Ġdifferent": 1600,
      "side": 1601,
      "ese": 1602,
      "ops": 1603,
      "Ġmy": 1604,
      "Ġdel": 1605,
      "ler": 1606,
      "Ġbeh": 1607,
      "ĠRec": 1608,
      "ology": 1609,
      "par": 1610,
      "Ġtyp": 1611,
      "Ġ22": 1612,
      "Ġfurther": 1613,
      "Ġsent": 1614,
      "esc": 1615,
      "ĠDav": 1616,
      "ots": 1617,
      "ested": 1618,
      "Ġlevel": 1619,
      "urs": 1620,
      "Ġfre": 1621,
      "Ġconsidered": 1622,
      "Ġtake": 1623,
      "Ġlaw": 1624,
      "ery": 1625,
      "ĠEl": 1626,
      "Ġtot": 1627,
      "Ġ2007": 1628,
      "gy": 1629,
      "Ġcareer": 1630,
      "ĠOne": 1631,
      "ront": 1632,
      "Ġproduction": 1633,
      "arm": 1634,
      "me": 1635,
      "Ġhalf": 1636,
      "ices": 1637,
      "ĠPark": 1638,
      "ĠCo": 1639,
      "Ġant": 1640,
      "ĠCity": 1641,
      "Ġhaving": 1642,
      "ampions": 1643,
      "bo": 1644,
      "ĠAcc": 1645,
      "ĠEnglish": 1646,
      "Ġmag": 1647,
      "Ġroad": 1648,
      "Ġeast": 1649,
      "Ġmoved": 1650,
      "Ġdra": 1651,
      "ering": 1652,
      "Ġevery": 1653,
      "Ġwest": 1654,
      "Ġwithout": 1655,
      "ĠAlthough": 1656,
      "rodu": 1657,
      "Ġcr": 1658,
      "ĠCent": 1659,
      "Ġappe": 1660,
      "Ġplan": 1661,
      "Ġplayer": 1662,
      "Ġ2012": 1663,
      "ining": 1664,
      "Ġposition": 1665,
      "Ġcor": 1666,
      "Ġbecome": 1667,
      "Ġarr": 1668,
      "Ġhistory": 1669,
      "Ġversion": 1670,
      "vers": 1671,
      "Ġtro": 1672,
      "ĠCal": 1673,
      "ford": 1674,
      "ĠAng": 1675,
      "ondon": 1676,
      "ones": 1677,
      "Ġcast": 1678,
      "ĠCount": 1679,
      "Ġel": 1680,
      "Ġinflu": 1681,
      "ize": 1682,
      "Ġarm": 1683,
      "Ġ23": 1684,
      "ĠLondon": 1685,
      "Ġhouse": 1686,
      "yle": 1687,
      "Ġsound": 1688,
      "rig": 1689,
      "Ġfore": 1690,
      "Ġcommun": 1691,
      "resent": 1692,
      "irc": 1693,
      "app": 1694,
      "ĠBatt": 1695,
      "Ġgr": 1696,
      "Ġclub": 1697,
      "Ġsugg": 1698,
      "roy": 1699,
      "aul": 1700,
      "atter": 1701,
      "Ġstrong": 1702,
      "Ġinvol": 1703,
      "ai": 1704,
      "Ġwritten": 1705,
      "Ġ190": 1706,
      "aining": 1707,
      "ĠWith": 1708,
      "Ġbas": 1709,
      "Ġstat": 1710,
      "Ġless": 1711,
      "oung": 1712,
      "utes": 1713,
      "Ġannoun": 1714,
      "rest": 1715,
      "Ġfoot": 1716,
      "ĠRiver": 1717,
      "iqu": 1718,
      "ald": 1719,
      "Ġorder": 1720,
      "Ġrefer": 1721,
      "iety": 1722,
      "iment": 1723,
      "ges": 1724,
      "Ġprof": 1725,
      "craft": 1726,
      "ĠCanad": 1727,
      "ae": 1728,
      "Ġaff": 1729,
      "Ġpoint": 1730,
      "sequ": 1731,
      "Ġtem": 1732,
      "Ġgiven": 1733,
      "Ġrad": 1734,
      "Ġlow": 1735,
      "Ġtrad": 1736,
      "Ġhig": 1737,
      "Ġwant": 1738,
      "ĠGener": 1739,
      "ĠUniversity": 1740,
      "ille": 1741,
      "Ġke": 1742,
      "Ġgave": 1743,
      "Ġpat": 1744,
      "uck": 1745,
      "isc": 1746,
      "Ġimport": 1747,
      "ĠPol": 1748,
      "Ġnever": 1749,
      "aff": 1750,
      "ĠWhile": 1751,
      "Ġchang": 1752,
      "Ġdefe": 1753,
      "ories": 1754,
      "Ġsoc": 1755,
      "Ġreturned": 1756,
      "ration": 1757,
      "ĠAb": 1758,
      "Ġvict": 1759,
      "Ġtotal": 1760,
      "Ġfact": 1761,
      "ĠHigh": 1762,
      "Ġgood": 1763,
      "ention": 1764,
      "ĠTr": 1765,
      "Ġcompany": 1766,
      "Ġfire": 1767,
      "sp": 1768,
      "ailed": 1769,
      "Ġcountry": 1770,
      "Ġwent": 1771,
      "ison": 1772,
      "Ġcomb": 1773,
      "cess": 1774,
      "Ġfriend": 1775,
      "ours": 1776,
      "rick": 1777,
      "ĠEx": 1778,
      "Ġcapt": 1779,
      "Ġpublished": 1780,
      "aun": 1781,
      "Ġproduced": 1782,
      "levision": 1783,
      "Ġfind": 1784,
      "aying": 1785,
      "con": 1786,
      "Ġreported": 1787,
      "Ġorigin": 1788,
      "ĠSm": 1789,
      "Ġ2006": 1790,
      "aign": 1791,
      "Ġlost": 1792,
      "Ġstated": 1793,
      "Ġcommon": 1794,
      "Ġprogram": 1795,
      "ington": 1796,
      "Ġlight": 1797,
      "yn": 1798,
      "Ġparticular": 1799,
      "ape": 1800,
      "Ġord": 1801,
      "echn": 1802,
      "Ġadm": 1803,
      "Ġinclude": 1804,
      "ests": 1805,
      "ĠAccording": 1806,
      "Ġlarg": 1807,
      "ably": 1808,
      "urric": 1809,
      "Ġcompet": 1810,
      "Ġer": 1811,
      "used": 1812,
      "Ġrecorded": 1813,
      "ief": 1814,
      "Ġbuilding": 1815,
      "Ġpress": 1816,
      "ĠSte": 1817,
      "Ġneed": 1818,
      "ĠNe": 1819,
      "Ġbus": 1820,
      "Ġproject": 1821,
      "hing": 1822,
      "Ġforces": 1823,
      "ument": 1824,
      "Ġnort": 1825,
      "Ġ27": 1826,
      "Ġships": 1827,
      "Ġshould": 1828,
      "Ġusing": 1829,
      "Ġeight": 1830,
      "Ġ50": 1831,
      "Ġ28": 1832,
      "Ġperformance": 1833,
      "iness": 1834,
      "ĠSw": 1835,
      "Ġservice": 1836,
      "bs": 1837,
      "Ġpopular": 1838,
      "Ġide": 1839,
      "ploy": 1840,
      "ĠThese": 1841,
      "Ġtimes": 1842,
      "osp": 1843,
      "Ġmaking": 1844,
      "Ġten": 1845,
      "Ġaircraft": 1846,
      "Ġhimself": 1847,
      "oyal": 1848,
      "Ġfun": 1849,
      "Ġauthor": 1850,
      "Ġ2013": 1851,
      "Ġfather": 1852,
      "atch": 1853,
      "Ġmilitary": 1854,
      "ĠAustralia": 1855,
      "ĠSec": 1856,
      "Ġanim": 1857,
      "lear": 1858,
      "Ġbattle": 1859,
      "ampionship": 1860,
      "ĠJack": 1861,
      "ned": 1862,
      "ĠAss": 1863,
      "Ġsit": 1864,
      "Ġlim": 1865,
      "Ġsongs": 1866,
      "Ġsomet": 1867,
      "Ġread": 1868,
      "ĠAf": 1869,
      "outher": 1870,
      "Ġcritic": 1871,
      "ensive": 1872,
      "ither": 1873,
      "ords": 1874,
      "Ġdevelopment": 1875,
      "Ġsw": 1876,
      "Ġhow": 1877,
      "Ġgl": 1878,
      "Ġ40": 1879,
      "ĠGeneral": 1880,
      "alth": 1881,
      "eth": 1882,
      "Ġsol": 1883,
      "itive": 1884,
      "eder": 1885,
      "ases": 1886,
      "quad": 1887,
      "Ġ26": 1888,
      "ĠState": 1889,
      "oll": 1890,
      "ĠCor": 1891,
      "outhern": 1892,
      "ĠJames": 1893,
      "Ġcross": 1894,
      "cer": 1895,
      "Ġ189": 1896,
      "amb": 1897,
      "Ġrepresent": 1898,
      "ĠSy": 1899,
      "Ġground": 1900,
      "Ġdestroy": 1901,
      "acy": 1902,
      "Ġstar": 1903,
      "Ġft": 1904,
      "Ġremained": 1905,
      "astern": 1906,
      "Ġste": 1907,
      "ks": 1908,
      "rie": 1909,
      "Ġcharacters": 1910,
      "ĠArmy": 1911,
      "Ġnational": 1912,
      "ĠPres": 1913,
      "Ġget": 1914,
      "ries": 1915,
      "work": 1916,
      "Ġmonths": 1917,
      "Ġsuff": 1918,
      "Ġgen": 1919,
      "ĠBo": 1920,
      "Ġdied": 1921,
      "aur": 1922,
      "Ġter": 1923,
      "ĠGl": 1924,
      "ĠComp": 1925,
      "ublic": 1926,
      "Ġdeveloped": 1927,
      "Ġtitle": 1928,
      "dom": 1929,
      "Ġsum": 1930,
      "Ġchart": 1931,
      "fic": 1932,
      "Ġcampaign": 1933,
      "ream": 1934,
      "urricane": 1935,
      "Ġforce": 1936,
      "ĠLeague": 1937,
      "Ġchildren": 1938,
      "Ġintrodu": 1939,
      "lands": 1940,
      "ency": 1941,
      "Ġpra": 1942,
      "Ġtour": 1943,
      "Ġpromot": 1944,
      "itted": 1945,
      "isted": 1946,
      "ael": 1947,
      "Ġson": 1948,
      "Ġsignific": 1949,
      "Ġred": 1950,
      "Ġacross": 1951,
      "Ġaway": 1952,
      "ression": 1953,
      "hern": 1954,
      "Ġrelations": 1955,
      "Ġobs": 1956,
      "Ġhistor": 1957,
      "Ġfield": 1958,
      "Ġofficial": 1959,
      "ĠDivision": 1960,
      "Ġfav": 1961,
      "Ġfelt": 1962,
      "ole": 1963,
      "lege": 1964,
      "ĠAmerica": 1965,
      "Ġnoted": 1966,
      "Ġfac": 1967,
      "ĠSim": 1968,
      "Ġnight": 1969,
      "alt": 1970,
      "Ġannounced": 1971,
      "most": 1972,
      "Ġreached": 1973,
      "ĠRuss": 1974,
      "Ġintern": 1975,
      "ĠSup": 1976,
      "Ġcreated": 1977,
      "ĠCounty": 1978,
      "Ġareas": 1979,
      "com": 1980,
      "ĠRep": 1981,
      "ĠMon": 1982,
      "Ġtelevision": 1983,
      "Ġcoun": 1984,
      "Ġ2005": 1985,
      "ĠRoad": 1986,
      "ĠJapanese": 1987,
      "Ġstation": 1988,
      "hem": 1989,
      "ressed": 1990,
      "Ġsuccessful": 1991,
      "ĠMad": 1992,
      "Ġrock": 1993,
      "imately": 1994,
      "Ġval": 1995,
      "ĠGr": 1996,
      "ĠReg": 1997,
      "ising": 1998,
      "Ġvarious": 1999,
      "ĠâĢĻ": 2000,
      "Ġbar": 2001,
      "ĠStreet": 2002,
      "Ġpolitical": 2003,
      "Ġseen": 2004,
      "Ġfollowed": 2005,
      "Ġaver": 2006,
      "field": 2007,
      "iber": 2008,
      "iting": 2009,
      "Ġtoo": 2010,
      "Ġ29": 2011,
      "Ġrank": 2012,
      "ett": 2013,
      "ĠEast": 2014,
      "ope": 2015,
      "Ġperformed": 2016,
      "cast": 2017,
      "ĠRober": 2018,
      "Ġcult": 2019,
      "ization": 2020,
      "Ġserved": 2021,
      "Ġ2014": 2022,
      "Ġplayers": 2023,
      "Ġfront": 2024,
      "reg": 2025,
      "Ġrev": 2026,
      "ality": 2027,
      "ĠGeorge": 2028,
      "Ġcond": 2029,
      "Ġfull": 2030,
      "Ġprim": 2031,
      "Ġdecl": 2032,
      "Ġblack": 2033,
      "ination": 2034,
      "elling": 2035,
      "Ġbegin": 2036,
      "duct": 2037,
      "Ġfle": 2038,
      "Ġput": 2039,
      "ĠSer": 2040,
      "Ġcirc": 2041,
      "Ġconv": 2042,
      "Ġearl": 2043,
      "ĠPer": 2044,
      "olution": 2045,
      "ĠTo": 2046,
      "ĠHen": 2047,
      "Ġcost": 2048,
      "abor": 2049,
      "idence": 2050,
      "Ġsee": 2051,
      "Ġprocess": 2052,
      "Ġnon": 2053,
      "Ġdiv": 2054,
      "Ġstyle": 2055,
      "ying": 2056,
      "Ġlook": 2057,
      "ĠPhil": 2058,
      "Ġseven": 2059,
      "Ġvol": 2060,
      "Ġaud": 2061,
      "Ġkilled": 2062,
      "ĠEm": 2063,
      "Ġcy": 2064,
      "Ġhelp": 2065,
      "rict": 2066,
      "Ġlet": 2067,
      "lished": 2068,
      "play": 2069,
      "Ġthroughout": 2070,
      "ĠBill": 2071,
      "Ġtaken": 2072,
      "Ġtropical": 2073,
      "Ġable": 2074,
      "ana": 2075,
      "Ġfight": 2076,
      "Ġdiscover": 2077,
      "Ġagre": 2078,
      "ecut": 2079,
      "ertain": 2080,
      "Ġlittle": 2081,
      "Ġwid": 2082,
      "Ġbecom": 2083,
      "Ġfem": 2084,
      "Ġage": 2085,
      "urg": 2086,
      "Ġsignificant": 2087,
      "ĠSch": 2088,
      "Ġhit": 2089,
      "Ġmeet": 2090,
      "Ġident": 2091,
      "ĠThom": 2092,
      "ways": 2093,
      "irl": 2094,
      "Ġtechn": 2095,
      "Ġspecial": 2096,
      "Ġcop": 2097,
      "oice": 2098,
      "Ġwriting": 2099,
      "Ġstruct": 2100,
      "ĠDavid": 2101,
      "Ġthought": 2102,
      "Ġestablished": 2103,
      "ĠPart": 2104,
      "Ġbroad": 2105,
      "ĠAct": 2106,
      "enced": 2107,
      "ĠMor": 2108,
      "Ġmm": 2109,
      "Ġappeared": 2110,
      "Ġdoes": 2111,
      "Ġcoll": 2112,
      "Ġentire": 2113,
      "ĠAustralian": 2114,
      "aval": 2115,
      "cil": 2116,
      "epend": 2117,
      "Ġ!": 2118,
      "Ġyoung": 2119,
      "Ġcoast": 2120,
      "Ġpoints": 2121,
      "Ġmiles": 2122,
      "ius": 2123,
      "Ġbody": 2124,
      "Ġaward": 2125,
      "less": 2126,
      "Ġimpro": 2127,
      "ĠRich": 2128,
      "Ġroute": 2129,
      "Ġmember": 2130,
      "odes": 2131,
      "ought": 2132,
      "ĠMed": 2133,
      "ground": 2134,
      "ript": 2135,
      "Ġwomen": 2136,
      "Ġactiv": 2137,
      "Ġrange": 2138,
      "ster": 2139,
      "ask": 2140,
      "ĠPe": 2141,
      "ivil": 2142,
      "ĠYou": 2143,
      "Ġcaused": 2144,
      "Ġstarted": 2145,
      "Ġdecided": 2146,
      "iers": 2147,
      "blem": 2148,
      "Ġfeatures": 2149,
      "lected": 2150,
      "day": 2151,
      "ĠAfric": 2152,
      "Ġgeneral": 2153,
      "Ġpain": 2154,
      "ĠQu": 2155,
      "Ġeventually": 2156,
      "ators": 2157,
      "iron": 2158,
      "iec": 2159,
      "int": 2160,
      "umb": 2161,
      "men": 2162,
      "conom": 2163,
      "oph": 2164,
      "ogn": 2165,
      "uk": 2166,
      "den": 2167,
      "ĠRoyal": 2168,
      "Ġrace": 2169,
      "Ġarch": 2170,
      "Ġvot": 2171,
      "here": 2172,
      "itar": 2173,
      "Ġgrow": 2174,
      "Ġmanag": 2175,
      "Ġfeet": 2176,
      "pped": 2177,
      "rison": 2178,
      "Ġtoget": 2179,
      "Ġtogether": 2180,
      "ush": 2181,
      "Ġadded": 2182,
      "ĠHist": 2183,
      "ĠHouse": 2184,
      "Ġtre": 2185,
      "Ġhold": 2186,
      "bert": 2187,
      "Ġcut": 2188,
      "ivid": 2189,
      "Ġ188": 2190,
      "Ġwhite": 2191,
      "Ġonce": 2192,
      "Ġnov": 2193,
      "ample": 2194,
      "ament": 2195,
      "Ġformed": 2196,
      "Ġarg": 2197,
      "Ġlocated": 2198,
      "Ġstri": 2199,
      "reek": 2200,
      "urb": 2201,
      "Ġconn": 2202,
      "Ġmodern": 2203,
      "off": 2204,
      "ĠBlack": 2205,
      "Ġenc": 2206,
      "Ġinstead": 2207,
      "dle": 2208,
      "ĠPort": 2209,
      "head": 2210,
      "rought": 2211,
      "aces": 2212,
      "Ġround": 2213,
      "Ġesc": 2214,
      "Ġ31": 2215,
      "Ġball": 2216,
      "ara": 2217,
      "Ġmix": 2218,
      "emy": 2219,
      "ĠIntern": 2220,
      "Ġimportant": 2221,
      "ee": 2222,
      "Ġpri": 2223,
      "cing": 2224,
      "Ġcrew": 2225,
      "Ġsaw": 2226,
      "Ġaction": 2227,
      "Ġcompleted": 2228,
      "Ġredu": 2229,
      "ĠItal": 2230,
      "Ġplaying": 2231,
      "ects": 2232,
      "ĠIndian": 2233,
      "ids": 2234,
      "oney": 2235,
      "cent": 2236,
      "rated": 2237,
      "ĠOther": 2238,
      "ells": 2239,
      "Ġ2004": 2240,
      "ata": 2241,
      "Ġinsp": 2242,
      "Ġbase": 2243,
      "Ġmater": 2244,
      "Ġpopulation": 2245,
      "ĠMy": 2246,
      "Ġmot": 2247,
      "Ġsurv": 2248,
      "ĠMichael": 2249,
      "Ġvoc": 2250,
      "Ġask": 2251,
      "Ġrather": 2252,
      "Ġoccur": 2253,
      "Ġopened": 2254,
      "Ġstage": 2255,
      "Ġbehind": 2256,
      "Ġothers": 2257,
      "Ġ186": 2258,
      "ray": 2259,
      "Ġfall": 2260,
      "Ġren": 2261,
      "Ġguns": 2262,
      "asing": 2263,
      "ceed": 2264,
      "Ġbrother": 2265,
      "wood": 2266,
      "ements": 2267,
      "igned": 2268,
      "Ġcomment": 2269,
      "lin": 2270,
      "Ġlik": 2271,
      "stit": 2272,
      "Ġborn": 2273,
      "Ġfif": 2274,
      "Ġ2015": 2275,
      "Ġsite": 2276,
      "Ġlive": 2277,
      "Ġworks": 2278,
      "Ġloss": 2279,
      "ĠFrance": 2280,
      "Ġbomb": 2281,
      "Ġworked": 2282,
      "ficult": 2283,
      "Ġheavy": 2284,
      "Ġmiss": 2285,
      "Ġpred": 2286,
      "Ã¡": 2287,
      "ĠSchool": 2288,
      "medi": 2289,
      "rap": 2290,
      "Ġsubsequ": 2291,
      "Ġlack": 2292,
      "Ġparty": 2293,
      "Ġproblem": 2294,
      "nder": 2295,
      "lection": 2296,
      "Ġdifficult": 2297,
      "Ġclose": 2298,
      "ĠWash": 2299,
      "Ġconstruction": 2300,
      "Ġknow": 2301,
      "ĠNor": 2302,
      "ĠSome": 2303,
      "Ġrelationship": 2304,
      "Ġhost": 2305,
      "Ġweeks": 2306,
      "istic": 2307,
      "ĠSan": 2308,
      "Ġoriginally": 2309,
      "Ġsepar": 2310,
      "Ġassoci": 2311,
      "arch": 2312,
      "co": 2313,
      "Ġupon": 2314,
      "Ġpract": 2315,
      "Ġreb": 2316,
      "ĠHenry": 2317,
      "Ġleading": 2318,
      "Ġappoin": 2319,
      "Ġaccom": 2320,
      "Ġvill": 2321,
      "Ġalmost": 2322,
      "Ġmer": 2323,
      "ĠRobert": 2324,
      "orts": 2325,
      "Ġpeak": 2326,
      "ĠAle": 2327,
      "Ġinj": 2328,
      "Ġdamage": 2329,
      "lic": 2330,
      "unk": 2331,
      "Ġscored": 2332,
      "Ġfourth": 2333,
      "osition": 2334,
      "Ġinform": 2335,
      "Ġ2000": 2336,
      "Ġreve": 2337,
      "ĠMusic": 2338,
      "aps": 2339,
      "Ġprovided": 2340,
      "ĠBest": 2341,
      "ming": 2342,
      "Ġcase": 2343,
      "ĠVir": 2344,
      "ĠStar": 2345,
      "Ġgoal": 2346,
      "Ġclos": 2347,
      "ĠBattle": 2348,
      "board": 2349,
      "Ġengine": 2350,
      "Ġcreat": 2351,
      "ĠRed": 2352,
      "Ġaccept": 2353,
      "Ġmi": 2354,
      "Ġinvest": 2355,
      "ica": 2356,
      "oring": 2357,
      "Ġscene": 2358,
      "ellow": 2359,
      "ĠDesp": 2360,
      "Ġhuman": 2361,
      "angu": 2362,
      "ule": 2363,
      "ino": 2364,
      "ological": 2365,
      "Ġbrought": 2366,
      "Ġ500": 2367,
      "Ġfree": 2368,
      "Ġindivid": 2369,
      "Ġ187": 2370,
      "ĠPaul": 2371,
      "Ġfeatured": 2372,
      "ula": 2373,
      "Ġmother": 2374,
      "ĠPresident": 2375,
      "ĠRou": 2376,
      "Ġking": 2377,
      "Ġleast": 2378,
      "ama": 2379,
      "Ġworking": 2380,
      "aut": 2381,
      "Ġallowed": 2382,
      "Ġlaun": 2383,
      "Ġresul": 2384,
      "ĠMil": 2385,
      "Ġaverage": 2386,
      "ĠCap": 2387,
      "Ġtowards": 2388,
      "Ġwanted": 2389,
      "Ġmult": 2390,
      "Ġindust": 2391,
      "Ġtradition": 2392,
      "aves": 2393,
      "Ġregion": 2394,
      "Ġbusiness": 2395,
      "ĠWashington": 2396,
      "ĠHol": 2397,
      "iding": 2398,
      "azine": 2399,
      "ĠAg": 2400,
      "ĠQue": 2401,
      "Ġve": 2402,
      "Ġquick": 2403,
      "Ġtroops": 2404,
      "Ġplaced": 2405,
      "Ġeither": 2406,
      "Ġce": 2407,
      "Ġrespect": 2408,
      "ving": 2409,
      "Ġoffice": 2410,
      "Ġcritics": 2411,
      "ky": 2412,
      "ĠBel": 2413,
      "Ġavail": 2414,
      "Ġhon": 2415,
      "antic": 2416,
      "Ġreach": 2417,
      "ĠÃ": 2418,
      "Ġprofess": 2419,
      "Ġexample": 2420,
      "Ġruns": 2421,
      "Ġmaterial": 2422,
      "Ġeconom": 2423,
      "Ġrecogn": 2424,
      "Ġfar": 2425,
      "ened": 2426,
      "Ġwife": 2427,
      "ze": 2428,
      "go": 2429,
      "earch": 2430,
      "to": 2431,
      "chie": 2432,
      "Ġneg": 2433,
      "Ġestim": 2434,
      "ential": 2435,
      "Ġarmy": 2436,
      "Ġfoc": 2437,
      "right": 2438,
      "ĠDespite": 2439,
      "Ġsex": 2440,
      "Ġ2003": 2441,
      "Ġinterest": 2442,
      "ĠFollow": 2443,
      "ĠCour": 2444,
      "Ġsour": 2445,
      "ength": 2446,
      "Ġgenerally": 2447,
      "Ġmass": 2448,
      "Ġjoined": 2449,
      "Ġdou": 2450,
      "Ġrail": 2451,
      "quadron": 2452,
      "ĠHam": 2453,
      "Ġproper": 2454,
      "ills": 2455,
      "ĠAngel": 2456,
      "uff": 2457,
      "enes": 2458,
      "Ġcurrent": 2459,
      "Ġdev": 2460,
      "ourn": 2461,
      "ĠHall": 2462,
      "ĠCup": 2463,
      "Ġevents": 2464,
      "Ġbelieved": 2465,
      "ĠGame": 2466,
      "itch": 2467,
      "of": 2468,
      "Ġparticip": 2469,
      "Ġ35": 2470,
      "rey": 2471,
      "be": 2472,
      "Ġfig": 2473,
      "ĠFollowing": 2474,
      "ĠKe": 2475,
      "ville": 2476,
      "ĠFirst": 2477,
      "ĠMary": 2478,
      "ĠDr": 2479,
      "Ġz": 2480,
      "Ġvictory": 2481,
      "Ġreplaced": 2482,
      "ĠLou": 2483,
      "ĠGreat": 2484,
      "artment": 2485,
      "Ġdesigned": 2486,
      "Ġmph": 2487,
      "iction": 2488,
      "Ġgrad": 2489,
      "ĠJe": 2490,
      "Ġrul": 2491,
      "itte": 2492,
      "Ġsoon": 2493,
      "Ġnomin": 2494,
      "sc": 2495,
      "Ġisland": 2496,
      "ĠGro": 2497,
      "Ġfund": 2498,
      "xic": 2499,
      "ĠLa": 2500,
      "erous": 2501,
      "oor": 2502,
      "Ġhours": 2503,
      "ĠEuropean": 2504,
      "ĠTwo": 2505,
      "Ġemploy": 2506,
      "Ġpresident": 2507,
      "ĠMal": 2508,
      "Ġroom": 2509,
      "ification": 2510,
      "Ġinvolved": 2511,
      "aled": 2512,
      "uel": 2513,
      "Ġsurf": 2514,
      "val": 2515,
      "aper": 2516,
      "Ġfinished": 2517,
      "merc": 2518,
      "Ġstru": 2519,
      "ĠChampionship": 2520,
      "inn": 2521,
      "inist": 2522,
      "asion": 2523,
      "west": 2524,
      "ĠMart": 2525,
      "inf": 2526,
      "ĠPlay": 2527,
      "Ġbreak": 2528,
      "ĠRoman": 2529,
      "Ġhor": 2530,
      "rain": 2531,
      "aren": 2532,
      "iff": 2533,
      "Ġsaying": 2534,
      "arn": 2535,
      "emor": 2536,
      "Ġcourt": 2537,
      "Ġshot": 2538,
      "Ġthreat": 2539,
      "ĠBer": 2540,
      "Ġscore": 2541,
      "Ġopening": 2542,
      "Ġregular": 2543,
      "ĠDan": 2544,
      "BC": 2545,
      "Ġdesp": 2546,
      "Ġdirector": 2547,
      "Ġlength": 2548,
      "ĠMet": 2549,
      "ĠMac": 2550,
      "ĠDon": 2551,
      "Ġindic": 2552,
      "ades": 2553,
      "leg": 2554,
      "cher": 2555,
      "ĠScott": 2556,
      "Ġconduct": 2557,
      "Ġlargest": 2558,
      "Ġcontrib": 2559,
      "Ġtravel": 2560,
      "Ġhom": 2561,
      "oul": 2562,
      "ki": 2563,
      "Ġpossible": 2564,
      "ecutive": 2565,
      "Ġill": 2566,
      "ude": 2567,
      "now": 2568,
      "Ġminutes": 2569,
      "Ġhighway": 2570,
      "ĠRoute": 2571,
      "Ġsouthern": 2572,
      "ishing": 2573,
      "Ġdro": 2574,
      "ĠCro": 2575,
      "Ġhy": 2576,
      "ĠVal": 2577,
      "icle": 2578,
      "Ġhighest": 2579,
      "Ġremov": 2580,
      "ĠFrom": 2581,
      "Ġearlier": 2582,
      "Ġ2001": 2583,
      "Ġtest": 2584,
      "ĠAtl": 2585,
      "Ġinitially": 2586,
      "ĠSing": 2587,
      "ago": 2588,
      "Ġly": 2589,
      "Ġavailable": 2590,
      "Ġparticularly": 2591,
      "Ġpercent": 2592,
      "ander": 2593,
      "antry": 2594,
      "Ġhard": 2595,
      "ĠWil": 2596,
      "anned": 2597,
      "Ġsequ": 2598,
      "Ġtraining": 2599,
      "ĠRepublic": 2600,
      "Ġforced": 2601,
      "Ġmust": 2602,
      "Ġexist": 2603,
      "ply": 2604,
      "ĠMid": 2605,
      "ipp": 2606,
      "hib": 2607,
      "ĠMag": 2608,
      "ĠKingdom": 2609,
      "ĠCharles": 2610,
      "ĠNavy": 2611,
      "ography": 2612,
      "asy": 2613,
      "Ġpark": 2614,
      "ĠÂ°": 2615,
      "rian": 2616,
      "bor": 2617,
      "ateg": 2618,
      "Ġrespons": 2619,
      "Ġended": 2620,
      "Ġquar": 2621,
      "rac": 2622,
      "ĠMcC": 2623,
      "ĠOff": 2624,
      "Ġturned": 2625,
      "Ġwall": 2626,
      "ĠThomas": 2627,
      "Ġexc": 2628,
      "Ġsocial": 2629,
      "ĠInternational": 2630,
      "uture": 2631,
      "ĠBut": 2632,
      "Ġstudio": 2633,
      "ĠPal": 2634,
      "ems": 2635,
      "iforn": 2636,
      "ĠRes": 2637,
      "rag": 2638,
      "ĠDep": 2639,
      "ios": 2640,
      "Ġchange": 2641,
      "ĠWhite": 2642,
      "Ġlangu": 2643,
      "ĠVirgin": 2644,
      "Ġpraised": 2645,
      "Ġpassed": 2646,
      "Ġsuper": 2647,
      "Ġpriv": 2648,
      "Ġbill": 2649,
      "atural": 2650,
      "Ġpiec": 2651,
      "Ġincreased": 2652,
      "Ġobject": 2653,
      "ĠBrown": 2654,
      "rup": 2655,
      "Ġeduc": 2656,
      "Ġhurricane": 2657,
      "Ġregard": 2658,
      "Ġnorthern": 2659,
      "heast": 2660,
      "Ġ2002": 2661,
      "Ġkeep": 2662,
      "Ġphys": 2663,
      "Ġcentral": 2664,
      "ights": 2665,
      "ĠChurch": 2666,
      "itor": 2667,
      "Ġnovel": 2668,
      "Ġrelig": 2669,
      "ĠCanada": 2670,
      "sel": 2671,
      "Ġspeed": 2672,
      "Ġappearance": 2673,
      "ĠCaliforn": 2674,
      "Ġunits": 2675,
      "Ġpast": 2676,
      "rem": 2677,
      "ership": 2678,
      "ĠRock": 2679,
      "ĠSl": 2680,
      "key": 2681,
      "Ġstop": 2682,
      "Ġchurch": 2683,
      "ĠSen": 2684,
      "ended": 2685,
      "Ġcou": 2686,
      "Ġimmedi": 2687,
      "ĠBay": 2688,
      "uter": 2689,
      "Ġsym": 2690,
      "ston": 2691,
      "ĠMo": 2692,
      "ĠSmith": 2693,
      "ocr": 2694,
      "Ġdisp": 2695,
      "Ġmeas": 2696,
      "Ġordered": 2697,
      "aughter": 2698,
      "ĠMer": 2699,
      "Ġtreat": 2700,
      "ique": 2701,
      "ĠSam": 2702,
      "Ġtaking": 2703,
      "ference": 2704,
      "ĠRichard": 2705,
      "rying": 2706,
      "ittee": 2707,
      "Ġindepend": 2708,
      "Ġlove": 2709,
      "ĠAlex": 2710,
      "Ġsigned": 2711,
      "Ġmove": 2712,
      "ilities": 2713,
      "ĠCalifornia": 2714,
      "Ġachie": 2715,
      "etwork": 2716,
      "Ġbetter": 2717,
      "Ġpers": 2718,
      "ump": 2719,
      "ĠUnion": 2720,
      "itz": 2721,
      "aker": 2722,
      "ĠGod": 2723,
      "Ġap": 2724,
      "ĠGovern": 2725,
      "ecess": 2726,
      "arily": 2727,
      "Ġinn": 2728,
      "Ġwinds": 2729,
      "ĠIsland": 2730,
      "Ġcommerc": 2731,
      "Ġenough": 2732,
      "Ġwat": 2733,
      "Ġpositive": 2734,
      "ears": 2735,
      "nel": 2736,
      "ume": 2737,
      "ĠCourt": 2738,
      "Ġaccording": 2739,
      "Ġhous": 2740,
      "Ġspent": 2741,
      "elled": 2742,
      "Ġgoing": 2743,
      "Ġpot": 2744,
      "Ġabove": 2745,
      "ĠBra": 2746,
      "Ġslow": 2747,
      "anks": 2748,
      "Ġoutside": 2749,
      "Ġfilms": 2750,
      "apt": 2751,
      "ĠTom": 2752,
      "ĠVict": 2753,
      "ĠUp": 2754,
      "ĠCong": 2755,
      "Ġfeel": 2756,
      "Ġtold": 2757,
      "Ġfootball": 2758,
      "ma": 2759,
      "ĠAward": 2760,
      "berg": 2761,
      "quare": 2762,
      "Ġclear": 2763,
      "Ġpreviously": 2764,
      "uation": 2765,
      "Ġquest": 2766,
      "Ġstates": 2767,
      "Ġrecording": 2768,
      "Ġ1990": 2769,
      "Ġmean": 2770,
      "anding": 2771,
      "ĠAssoci": 2772,
      "Ġ60": 2773,
      "ĠAc": 2774,
      "Ġnine": 2775,
      "het": 2776,
      "Ġpur": 2777,
      "usion": 2778,
      "Ġsubject": 2779,
      "ĠArt": 2780,
      "Ġfailed": 2781,
      "atin": 2782,
      "ows": 2783,
      "Ġassist": 2784,
      "Ġcome": 2785,
      "ĠCompany": 2786,
      "Ġrequired": 2787,
      "osing": 2788,
      "Ġ45": 2789,
      "reng": 2790,
      "Ġelements": 2791,
      "Ġprob": 2792,
      "van": 2793,
      "Ġey": 2794,
      "ida": 2795,
      "ĠStud": 2796,
      "Ġcru": 2797,
      "alion": 2798,
      "ĠIndia": 2799,
      "Ġlower": 2800,
      "ĠGermany": 2801,
      "Ġreviews": 2802,
      "Ġinterview": 2803,
      "edy": 2804,
      "Ġphot": 2805,
      "Ġparts": 2806,
      "ĠMark": 2807,
      "ĠPeter": 2808,
      "ĠGold": 2809,
      "Ġitself": 2810,
      "ĠChristian": 2811,
      "Ġsil": 2812,
      "Ġnar": 2813,
      "Ġthink": 2814,
      "nes": 2815,
      "ranch": 2816,
      "ship": 2817,
      "Ġdirected": 2818,
      "Ġabs": 2819,
      "isl": 2820,
      "Ġesp": 2821,
      "Ġflow": 2822,
      "ibility": 2823,
      "Ġdespite": 2824,
      "Ġcred": 2825,
      "amer": 2826,
      "Ġcontract": 2827,
      "Ġ185": 2828,
      "oke": 2829,
      "ĠNY": 2830,
      "ĠThat": 2831,
      "Ġdebut": 2832,
      "Ġ?": 2833,
      "ĠTimes": 2834,
      "ĠÂ£": 2835,
      "ĠPat": 2836,
      "erved": 2837,
      "Ġaccess": 2838,
      "ready": 2839,
      "leb": 2840,
      "ĠCast": 2841,
      "Ġbeginning": 2842,
      "oid": 2843,
      "Ġbi": 2844,
      "Ġgroups": 2845,
      "ĠCollege": 2846,
      "Ġviol": 2847,
      "onna": 2848,
      "ĠHill": 2849,
      "Ġsection": 2850,
      "ĠUK": 2851,
      "ĠSov": 2852,
      "ability": 2853,
      "hester": 2854,
      "Ġwhose": 2855,
      "ĠBr": 2856,
      "asons": 2857,
      "Ġclaimed": 2858,
      "ĠWestern": 2859,
      "Ġinternational": 2860,
      "Ġasked": 2861,
      "Ġlines": 2862,
      "Ġtransfer": 2863,
      "Ġprevent": 2864,
      "ĠDem": 2865,
      "Ġstreng": 2866,
      "Ġscreen": 2867,
      "Ġgive": 2868,
      "airs": 2869,
      "Ġche": 2870,
      "ĠSoviet": 2871,
      "onse": 2872,
      "rief": 2873,
      "Ġunc": 2874,
      "Ġbeg": 2875,
      "Ġkey": 2876,
      "Ġadditional": 2877,
      "Ġfuture": 2878,
      "ĠFilm": 2879,
      "mar": 2880,
      "ĠGrand": 2881,
      "ĠMexic": 2882,
      "Ġleague": 2883,
      "Ġwhom": 2884,
      "ĠFrank": 2885,
      "Ġop": 2886,
      "ĠDo": 2887,
      "Ġgold": 2888,
      "ĠSpan": 2889,
      "Ġpoor": 2890,
      "ĠBen": 2891,
      "ĠAwards": 2892,
      "Ġfort": 2893,
      "lying": 2894,
      "Ġintroduced": 2895,
      "Ġevidence": 2896,
      "Ġdon": 2897,
      "Ġprem": 2898,
      "ites": 2899,
      "onst": 2900,
      "Ġsea": 2901,
      "Ġidea": 2902,
      "ex": 2903,
      "Ġquickly": 2904,
      "Ġcal": 2905,
      "atory": 2906,
      "Ġalready": 2907,
      "ĠSoc": 2908,
      "Ġ32": 2909,
      "Ġcenter": 2910,
      "Ġbridge": 2911,
      "Ġfrequ": 2912,
      "ĠForce": 2913,
      "usp": 2914,
      "ĠMost": 2915,
      "Ġelection": 2916,
      "Ġproduct": 2917,
      "Ġoccup": 2918,
      "eck": 2919,
      "Ġpil": 2920,
      "Ġexcept": 2921,
      "ĠCoun": 2922,
      "back": 2923,
      "Ġ1970": 2924,
      "unt": 2925,
      "Ġdeal": 2926,
      "irth": 2927,
      "eum": 2928,
      "ecially": 2929,
      "Ġpen": 2930,
      "Ġusually": 2931,
      "Ġmusical": 2932,
      "Ġ1980": 2933,
      "Ġemb": 2934,
      "Ġwestern": 2935,
      "Ġarrived": 2936,
      "aring": 2937,
      "ĠRob": 2938,
      "Ġblock": 2939,
      "eal": 2940,
      "Ġradio": 2941,
      "ĠBritain": 2942,
      "Ġcivil": 2943,
      "liam": 2944,
      "Ġcycl": 2945,
      "ergy": 2946,
      "ully": 2947,
      "ĠOver": 2948,
      "Ġfemale": 2949,
      "Ġsometimes": 2950,
      "ĠDay": 2951,
      "Ġstudy": 2952,
      "Ġfood": 2953,
      "Ġresponse": 2954,
      "Ġdecision": 2955,
      "Ġmoney": 2956,
      "ĠPac": 2957,
      "Ġmagazine": 2958,
      "Ġespecially": 2959,
      "ĠHot": 2960,
      "Ġissue": 2961,
      "ĠLater": 2962,
      "asc": 2963,
      "liament": 2964,
      "ĠVictor": 2965,
      "ĠIm": 2966,
      "Ġlab": 2967,
      "Ġsurface": 2968,
      "Ġ-": 2969,
      "Ġliter": 2970,
      "gen": 2971,
      "rack": 2972,
      "Ġflood": 2973,
      "Ġmight": 2974,
      "aint": 2975,
      "ĠChic": 2976,
      "Ġenv": 2977,
      "ĠTra": 2978,
      "Ġguitar": 2979,
      "Ġcarried": 2980,
      "ĠBur": 2981,
      "Ġshows": 2982,
      "Ġcommunity": 2983,
      "ena": 2984,
      "Ġconstruct": 2985,
      "iter": 2986,
      "Ġestimated": 2987,
      "Ġarran": 2988,
      "Ġremain": 2989,
      "aries": 2990,
      "ĠMill": 2991,
      "Ġ1999": 2992,
      "Ġremaining": 2993,
      "Ġeastern": 2994,
      "ha": 2995,
      "Ġminor": 2996,
      "Ġdefeated": 2997,
      "Ġdeterm": 2998,
      "ĠRh": 2999,
      "inent": 3000,
      "ession": 3001,
      "ĠVirginia": 3002,
      "ĠEarly": 3003,
      "Ġapprox": 3004,
      "igan": 3005,
      "Ġlarger": 3006,
      "raw": 3007,
      "ulf": 3008,
      "Ġbecoming": 3009,
      "Ġrap": 3010,
      "Ġwood": 3011,
      "Ġcomplete": 3012,
      "ĠMount": 3013,
      "Ġ36": 3014,
      "rab": 3015,
      "ror": 3016,
      "Ġpolice": 3017,
      "Ġsuggested": 3018,
      "porary": 3019,
      "Ġmedia": 3020,
      "Ġpressure": 3021,
      "Ġentered": 3022,
      "Ġshoot": 3023,
      "Ġ80": 3024,
      "Ġteams": 3025,
      "rics": 3026,
      "ĠLos": 3027,
      "ĠJust": 3028,
      "Ġcommercial": 3029,
      "Ġanal": 3030,
      "ĠInf": 3031,
      "Ġdoc": 3032,
      "Ġlatter": 3033,
      "ands": 3034,
      "NA": 3035,
      "Ġmarket": 3036,
      "erve": 3037,
      "Ġlo": 3038,
      "Ġconsider": 3039,
      "Ġstudents": 3040,
      "ises": 3041,
      "Ġsurround": 3042,
      "Ġinvestig": 3043,
      "Ġbrief": 3044,
      "Ġconcern": 3045,
      "Ġpersonal": 3046,
      "ĠSecond": 3047,
      "inct": 3048,
      "Ġbur": 3049,
      "ĠIf": 3050,
      "ĠTex": 3051,
      "Ġcertain": 3052,
      "Ġprison": 3053,
      "Ġacqu": 3054,
      "Ġdiscuss": 3055,
      "ĠFle": 3056,
      "ĠJackson": 3057,
      "Ġeffects": 3058,
      "Ġcomplet": 3059,
      "Ġhop": 3060,
      "Ġappointed": 3061,
      "alled": 3062,
      "Ġder": 3063,
      "Ġsummer": 3064,
      "Ġepisodes": 3065,
      "ĠCont": 3066,
      "Ġprior": 3067,
      "ederal": 3068,
      "incip": 3069,
      "ĠFlor": 3070,
      "Ġsat": 3071,
      "Ġtar": 3072,
      "change": 3073,
      "Ġemer": 3074,
      "Ġstaff": 3075,
      "enth": 3076,
      "lymp": 3077,
      "Ġsize": 3078,
      "ĠLouis": 3079,
      "ores": 3080,
      "Ġchanges": 3081,
      "ulated": 3082,
      "Ġcommission": 3083,
      "sy": 3084,
      "omm": 3085,
      "tt": 3086,
      "imate": 3087,
      "Ġwinning": 3088,
      "Ġlimited": 3089,
      "Ġscenes": 3090,
      "ĠOlymp": 3091,
      "Ġriver": 3092,
      "Ġfleet": 3093,
      "Ġleaving": 3094,
      "Ġdestroyed": 3095,
      "iser": 3096,
      "Ġdeg": 3097,
      "Ġdraw": 3098,
      "Ġpay": 3099,
      "II": 3100,
      "ĠClub": 3101,
      "Ġden": 3102,
      "Ġrid": 3103,
      "lo": 3104,
      "que": 3105,
      "ĠSpanish": 3106,
      "Ġ75": 3107,
      "Ġself": 3108,
      "ga": 3109,
      "su": 3110,
      "Ġrights": 3111,
      "ournal": 3112,
      "Ġprovide": 3113,
      "Ġwriter": 3114,
      "ires": 3115,
      "rigade": 3116,
      "Ġpolic": 3117,
      "sen": 3118,
      "Ġtype": 3119,
      "idents": 3120,
      "Ġfail": 3121,
      "ari": 3122,
      "ension": 3123,
      "Ġdate": 3124,
      "Ġtrib": 3125,
      "Ġterrit": 3126,
      "oms": 3127,
      "ĠKh": 3128,
      "Ġgirl": 3129,
      "Ġproposed": 3130,
      "rd": 3131,
      "Ġinfluence": 3132,
      "ties": 3133,
      "ĠGreen": 3134,
      "ĠParty": 3135,
      "Ġoverall": 3136,
      "Ġtax": 3137,
      "Ġ184": 3138,
      "Ġkil": 3139,
      "Ġtransport": 3140,
      "Ġ1960": 3141,
      "Ġstructure": 3142,
      "ĠTer": 3143,
      "Ġcontro": 3144,
      "Ġequip": 3145,
      "ĠDu": 3146,
      "Ġ300": 3147,
      "Ġdivision": 3148,
      "Ġscript": 3149,
      "Ġbr": 3150,
      "iral": 3151,
      "inese": 3152,
      "ÃŃ": 3153,
      "ĠAssociation": 3154,
      "Ġagreed": 3155,
      "Ġanti": 3156,
      "Ġintended": 3157,
      "ĠPri": 3158,
      "Ġjud": 3159,
      "Ġbow": 3160,
      "ĠEdward": 3161,
      "Ġrunning": 3162,
      "ift": 3163,
      "ending": 3164,
      "icles": 3165,
      "ĠChicago": 3166,
      "Ġdaughter": 3167,
      "Ġbig": 3168,
      "Ġbroadcast": 3169,
      "Ġpurch": 3170,
      "Ġnearly": 3171,
      "Ġsupported": 3172,
      "ĠMany": 3173,
      "atives": 3174,
      "AF": 3175,
      "ĠAdm": 3176,
      "Ġdeep": 3177,
      "Ġdi": 3178,
      "Ġresearch": 3179,
      "Ġwide": 3180,
      "imum": 3181,
      "Ġestablish": 3182,
      "ĠRo": 3183,
      "Ġhelped": 3184,
      "Ġmarried": 3185,
      "Ġ1998": 3186,
      "Ġmovement": 3187,
      "ĠChinese": 3188,
      "Ġawarded": 3189,
      "Ġmultip": 3190,
      "ĠSong": 3191,
      "ĠIr": 3192,
      "ĠCouncil": 3193,
      "ili": 3194,
      "ĠOper": 3195,
      "iles": 3196,
      "atively": 3197,
      "acing": 3198,
      "irm": 3199,
      "Ġcreate": 3200,
      "Ġfavor": 3201,
      "Ġintens": 3202,
      "Ġdiss": 3203,
      "Ġbird": 3204,
      "ĠSal": 3205,
      "ĠEnter": 3206,
      "Ġdark": 3207,
      "Ġsusp": 3208,
      "pris": 3209,
      "omer": 3210,
      "ny": 3211,
      "teen": 3212,
      "Ġstars": 3213,
      "Ã¶": 3214,
      "che": 3215,
      "Ġlonger": 3216,
      "Ġlanguage": 3217,
      "Ġhigher": 3218,
      "Ġcat": 3219,
      "ĠEv": 3220,
      "Ġplanned": 3221,
      "mon": 3222,
      "Ġcompared": 3223,
      "Ġcaptured": 3224,
      "Ġincreasing": 3225,
      "Ġfans": 3226,
      "Ġconclud": 3227,
      "Ġcourse": 3228,
      "uz": 3229,
      "Ġchanged": 3230,
      "ĠServ": 3231,
      "ĠSuper": 3232,
      "ĠEmp": 3233,
      "ĠJohnson": 3234,
      "Ġ33": 3235,
      "ounds": 3236,
      "Ġexperience": 3237,
      "Ġapproximately": 3238,
      "Ġrelated": 3239,
      "selves": 3240,
      "Ġdone": 3241,
      "Ġfeature": 3242,
      "Ġfifth": 3243,
      "Ġliving": 3244,
      "enty": 3245,
      "ĠKore": 3246,
      "Ġthemselves": 3247,
      "abit": 3248,
      "ĠHistory": 3249,
      "Ġproducer": 3250,
      "bers": 3251,
      "itt": 3252,
      "Ġ70": 3253,
      "tained": 3254,
      "arent": 3255,
      "Ġtemper": 3256,
      "Ġspace": 3257,
      "Ġtracks": 3258,
      "Ġmostly": 3259,
      "ss": 3260,
      "ĠPacific": 3261,
      "isions": 3262,
      "Ġwithd": 3263,
      "ĠInter": 3264,
      "ĠBack": 3265,
      "uth": 3266,
      "anced": 3267,
      "olic": 3268,
      "ĠBillboard": 3269,
      "ij": 3270,
      "Ġthus": 3271,
      "ĠApp": 3272,
      "ĠBet": 3273,
      "ĠNot": 3274,
      "can": 3275,
      "Ġwoman": 3276,
      "Ġdead": 3277,
      "umn": 3278,
      "ĠMont": 3279,
      "Ġoperations": 3280,
      "Ġimm": 3281,
      "Ġremains": 3282,
      "Ġsyn": 3283,
      "Ġbring": 3284,
      "Ġquarter": 3285,
      "thing": 3286,
      "Ġour": 3287,
      "Ġnatural": 3288,
      "Ġwhether": 3289,
      "imin": 3290,
      "vin": 3291,
      "Ġult": 3292,
      "Ã¼": 3293,
      "oint": 3294,
      "Ġconcept": 3295,
      "Ġweap": 3296,
      "Ġdram": 3297,
      "ĠFinal": 3298,
      "ĠScot": 3299,
      "anded": 3300,
      "Ġprobably": 3301,
      "Ġsoldiers": 3302,
      "Ġran": 3303,
      "Ġcopies": 3304,
      "rast": 3305,
      "ĠSun": 3306,
      "bour": 3307,
      "Ġbuildings": 3308,
      "Ġleader": 3309,
      "Ġvoice": 3310,
      "Ġ1997": 3311,
      "Ġface": 3312,
      "Ġboy": 3313,
      "Ġextended": 3314,
      "ĠSince": 3315,
      "Ġlyrics": 3316,
      "Ġforward": 3317,
      "Ġdepart": 3318,
      "ĠKn": 3319,
      "Ġcomplex": 3320,
      "Ġboard": 3321,
      "ĠAtlantic": 3322,
      "Ġreact": 3323,
      "iring": 3324,
      "Ġbattles": 3325,
      "vey": 3326,
      "Ġissued": 3327,
      "Ġheav": 3328,
      "Ġchall": 3329,
      "riage": 3330,
      "ging": 3331,
      "Ġreally": 3332,
      "Ġcountries": 3333,
      "ospital": 3334,
      "Ġ37": 3335,
      "rate": 3336,
      "Ġsuffered": 3337,
      "ĠLake": 3338,
      "ĠCongress": 3339,
      "Ġcm": 3340,
      "ĠLove": 3341,
      "ĠFort": 3342,
      "ĠFranc": 3343,
      "Ġgoals": 3344,
      "ĠFlorida": 3345,
      "urt": 3346,
      "ĠSever": 3347,
      "Ġincludes": 3348,
      "Ġimmediately": 3349,
      "Ġmeth": 3350,
      "ĠBoth": 3351,
      "Ġattend": 3352,
      "ĠBig": 3353,
      "hood": 3354,
      "Ġbreed": 3355,
      "Ġcapital": 3356,
      "Ġmanager": 3357,
      "Ġmixed": 3358,
      "Ġprivate": 3359,
      "iant": 3360,
      "ĠJim": 3361,
      "ĠJew": 3362,
      "Ġofficers": 3363,
      "Ġlikely": 3364,
      "ĠOld": 3365,
      "Ġcann": 3366,
      "Ġdistrib": 3367,
      "hold": 3368,
      "ĠAnt": 3369,
      "ien": 3370,
      "Ġmach": 3371,
      "ĠQueen": 3372,
      "de": 3373,
      "bury": 3374,
      "Ġremoved": 3375,
      "ĠTexas": 3376,
      "Ġplant": 3377,
      "Ġinitial": 3378,
      "Ġceleb": 3379,
      "ĠSea": 3380,
      "Ġincrease": 3381,
      "venue": 3382,
      "ĠTown": 3383,
      "Ġhealth": 3384,
      "Ġsubsequently": 3385,
      "ĠDist": 3386,
      "Ġleave": 3387,
      "Ġplans": 3388,
      "ria": 3389,
      "Ġalways": 3390,
      "Ġfocus": 3391,
      "Ġcoin": 3392,
      "ĠLaw": 3393,
      "Ġnetwork": 3394,
      "ections": 3395,
      "Ġservices": 3396,
      "Ġmount": 3397,
      "Ġvia": 3398,
      "Ġstatus": 3399,
      "Ġcompan": 3400,
      "ĠTrans": 3401,
      "ĠTor": 3402,
      "rial": 3403,
      "ĠPet": 3404,
      "ĠChina": 3405,
      "Ġvisit": 3406,
      "Ġlocation": 3407,
      "ĠMr": 3408,
      "order": 3409,
      "ams": 3410,
      "ĠAnother": 3411,
      "iation": 3412,
      "Ġflag": 3413,
      "Ġproblems": 3414,
      "ĠLord": 3415,
      "ĠCamp": 3416,
      "ĠHow": 3417,
      "ĠEarth": 3418,
      "Ġoffered": 3419,
      "Ġinstr": 3420,
      "well": 3421,
      "ously": 3422,
      "aily": 3423,
      "Ġmodel": 3424,
      "Ġterms": 3425,
      "Ġnorm": 3426,
      "etic": 3427,
      "Ġmur": 3428,
      "ĠConst": 3429,
      "Ġcolon": 3430,
      "Ġapproach": 3431,
      "Ġsomething": 3432,
      "Ġvillage": 3433,
      "Ġadminist": 3434,
      "Ġtons": 3435,
      "Ġfell": 3436,
      "ounted": 3437,
      "ĠWood": 3438,
      "wer": 3439,
      "ĠBoy": 3440,
      "ctor": 3441,
      "ĠOl": 3442,
      "Ġtor": 3443,
      "ironment": 3444,
      "Ġsch": 3445,
      "Ġmajority": 3446,
      "ĠTur": 3447,
      "Ġprofessional": 3448,
      "orning": 3449,
      "Ġcounter": 3450,
      "Ġ183": 3451,
      "ĠCanadian": 3452,
      "ĠIts": 3453,
      "adium": 3454,
      "ĠRail": 3455,
      "Ã³": 3456,
      "Ġgot": 3457,
      "ibr": 3458,
      "ĠAfrica": 3459,
      "Ġcause": 3460,
      "ĠMur": 3461,
      "Ġconsist": 3462,
      "burg": 3463,
      "aches": 3464,
      "uries": 3465,
      "Ġinters": 3466,
      "Ġdamaged": 3467,
      "Ġmeeting": 3468,
      "ĠGre": 3469,
      "Ġjob": 3470,
      "Ġappears": 3471,
      "Ġadop": 3472,
      "Ġminute": 3473,
      "Ġranked": 3474,
      "olk": 3475,
      "Ġlay": 3476,
      "ĠCenter": 3477,
      "uf": 3478,
      "Ġindividual": 3479,
      "oes": 3480,
      "Ġcomposed": 3481,
      "cean": 3482,
      "Ġrevealed": 3483,
      "ĠSquadron": 3484,
      "ĠHighway": 3485,
      "ify": 3486,
      "Ġang": 3487,
      "ste": 3488,
      "Ġflight": 3489,
      "Ġattacks": 3490,
      "ĠRussian": 3491,
      "itect": 3492,
      "Ġ90": 3493,
      "Ġplot": 3494,
      "Ġdiscovered": 3495,
      "Ġraised": 3496,
      "lor": 3497,
      "reak": 3498,
      "umed": 3499,
      "Ġfinanc": 3500,
      "ĠRad": 3501,
      "ĠMel": 3502,
      "Ġrespectively": 3503,
      "Ġmakes": 3504,
      "pan": 3505,
      "ĠKent": 3506,
      "ĠCarol": 3507,
      "ĠMartin": 3508,
      "ĠCentral": 3509,
      "ĠSir": 3510,
      "Ġnumerous": 3511,
      "ĠIII": 3512,
      "Ġ1995": 3513,
      "Ġassociated": 3514,
      "Ġaltern": 3515,
      "gar": 3516,
      "Ġtakes": 3517,
      "ĠAngeles": 3518,
      "Ġdomin": 3519,
      "Ġneeded": 3520,
      "Ġinspired": 3521,
      "ĠBow": 3522,
      "Ġanc": 3523,
      "Ġlived": 3524,
      "Ġ34": 3525,
      "oe": 3526,
      "ault": 3527,
      "Ġgrand": 3528,
      "Ġlaunched": 3529,
      "Ġyet": 3530,
      "ription": 3531,
      "Ġcand": 3532,
      "Ġnature": 3533,
      "Ġpow": 3534,
      "Ġamb": 3535,
      "Ġdig": 3536,
      "Ġcoach": 3537,
      "Ġoccurred": 3538,
      "Ġcontains": 3539,
      "ĠDV": 3540,
      "Ġveh": 3541,
      "estival": 3542,
      "Ġbene": 3543,
      "Ġshown": 3544,
      "Ġattempted": 3545,
      "uals": 3546,
      "Ġattacked": 3547,
      "ĠDes": 3548,
      "uments": 3549,
      "Ġmoving": 3550,
      "Ġconditions": 3551,
      "Ġupper": 3552,
      "Ġhour": 3553,
      "ĠTV": 3554,
      "ka": 3555,
      "iest": 3556,
      "down": 3557,
      "imb": 3558,
      "ken": 3559,
      "Ġsales": 3560,
      "Ġgra": 3561,
      "ective": 3562,
      "Ġ38": 3563,
      "ĠGroup": 3564,
      "ĠMiss": 3565,
      "joy": 3566,
      "ĠYear": 3567,
      "Ġcollect": 3568,
      "Ġ2016": 3569,
      "ĠDel": 3570,
      "aught": 3571,
      "ĠTour": 3572,
      "Ġ1996": 3573,
      "orce": 3574,
      "Ġissues": 3575,
      "Ġbirth": 3576,
      "Ġ1950": 3577,
      "ĠRev": 3578,
      "Ġwhole": 3579,
      "Ġsal": 3580,
      "izing": 3581,
      "Ġi": 3582,
      "Ġexam": 3583,
      "Ġcer": 3584,
      "Ġinformation": 3585,
      "Ġyards": 3586,
      "Ġfarm": 3587,
      "Ġslight": 3588,
      "ĠEmpire": 3589,
      "ĠOut": 3590,
      "Ġbox": 3591,
      "urity": 3592,
      "Ġmom": 3593,
      "win": 3594,
      "vert": 3595,
      "Ġreferred": 3596,
      "uing": 3597,
      "Ġcritical": 3598,
      "oly": 3599,
      "Ġincor": 3600,
      "reme": 3601,
      "ĠUnder": 3602,
      "ĠPenn": 3603,
      "ĠGar": 3604,
      "Ġnumbers": 3605,
      "Ġfinally": 3606,
      "Ġsmaller": 3607,
      "Ġelected": 3608,
      "Ġselected": 3609,
      "Ġdefeat": 3610,
      "Ġresulted": 3611,
      "Ġsen": 3612,
      "Ġscient": 3613,
      "Ġstay": 3614,
      "Ġbad": 3615,
      "Ġgrant": 3616,
      "Ġqual": 3617,
      "Ġactive": 3618,
      "Ġprincip": 3619,
      "Ġsinger": 3620,
      "kin": 3621,
      "Ġstandard": 3622,
      "Ġsecret": 3623,
      "Ġpit": 3624,
      "itation": 3625,
      "ĠItalian": 3626,
      "uated": 3627,
      "Ġmission": 3628,
      "Ġindustry": 3629,
      "Ġ1994": 3630,
      "enant": 3631,
      "Ġlargely": 3632,
      "Ġens": 3633,
      "Ġoperation": 3634,
      "Ġsem": 3635,
      "andon": 3636,
      "ĠJose": 3637,
      "Ġprec": 3638,
      "Ġlink": 3639,
      "ortun": 3640,
      "onic": 3641,
      "oura": 3642,
      "Ġassigned": 3643,
      "use": 3644,
      "Ġsaf": 3645,
      "Ġlegisl": 3646,
      "Ġearned": 3647,
      "Ġthr": 3648,
      "Ġcommented": 3649,
      "ãĥ": 3650,
      "itude": 3651,
      "Ġmale": 3652,
      "Ġexpected": 3653,
      "ĠDVD": 3654,
      "ĠCorps": 3655,
      "iled": 3656,
      "ĠDis": 3657,
      "Ġroy": 3658,
      "Ġaudience": 3659,
      "Ġlisted": 3660,
      "Ġsuggest": 3661,
      "Ġgre": 3662,
      "oud": 3663,
      "ĠCrit": 3664,
      "ĠArm": 3665,
      "Ġcovered": 3666,
      "Ġpurp": 3667,
      "Ġunable": 3668,
      "irection": 3669,
      "Ġsched": 3670,
      "Ġheart": 3671,
      "Ġtraditional": 3672,
      "ĠCr": 3673,
      "Ġeducation": 3674,
      "gr": 3675,
      "Ġtrade": 3676,
      "Ġartist": 3677,
      "Ġnewsp": 3678,
      "ya": 3679,
      "Ġdouble": 3680,
      "Ġfriends": 3681,
      "Ġclosed": 3682,
      "ĠViet": 3683,
      "Ġunderst": 3684,
      "Ġrefused": 3685,
      "agon": 3686,
      "Ġaw": 3687,
      "Ġrecover": 3688,
      "Ġattention": 3689,
      "ounts": 3690,
      "Ġmethod": 3691,
      "Ġprimary": 3692,
      "ighter": 3693,
      "Ġsister": 3694,
      "ogue": 3695,
      "Ġkind": 3696,
      "Ġtalk": 3697,
      "ĠMichigan": 3698,
      "ĠPre": 3699,
      "tered": 3700,
      "Ġreason": 3701,
      "ffic": 3702,
      "Ġofficer": 3703,
      "Ġplat": 3704,
      "Ġbelow": 3705,
      "Ġcontem": 3706,
      "hips": 3707,
      "Ġ1940": 3708,
      "ĠWales": 3709,
      "Ġenjoy": 3710,
      "Ġability": 3711,
      "Ġdepression": 3712,
      "Ġmeant": 3713,
      "ĠMass": 3714,
      "Ġperformances": 3715,
      "Ġdeclared": 3716,
      "oo": 3717,
      "Ġwalk": 3718,
      "ĠNort": 3719,
      "Ġ49": 3720,
      "Ġblood": 3721,
      "isher": 3722,
      "ĠMore": 3723,
      "Ġgiving": 3724,
      "ĠCath": 3725,
      "Ġletter": 3726,
      "Ġcompl": 3727,
      "Ġword": 3728,
      "undred": 3729,
      "ples": 3730,
      "Ġ180": 3731,
      "Ġfighting": 3732,
      "Ġmiddle": 3733,
      "ĠCle": 3734,
      "Ġcommander": 3735,
      "Ġreligious": 3736,
      "Ġbooks": 3737,
      "Ġtheat": 3738,
      "Ġmax": 3739,
      "Ġhot": 3740,
      "Ġsett": 3741,
      "Ġrate": 3742,
      "ĠOx": 3743,
      "ĠArch": 3744,
      "ĠStep": 3745,
      "ĠLong": 3746,
      "Ġrecords": 3747,
      "ils": 3748,
      "Ġmatches": 3749,
      "Ġconstit": 3750,
      "ĠAcad": 3751,
      "Ġnames": 3752,
      "ona": 3753,
      "aped": 3754,
      "ĠBec": 3755,
      "ĠTest": 3756,
      "ĠDemocr": 3757,
      "Ġproduce": 3758,
      "Ġquestion": 3759,
      "ĠFer": 3760,
      "ĠCare": 3761,
      "antasy": 3762,
      "Ġcompetition": 3763,
      "utch": 3764,
      "Ġcentre": 3765,
      "Ġserious": 3766,
      "Ġunit": 3767,
      "ux": 3768,
      "ĠTeam": 3769,
      "odies": 3770,
      "Ġdisapp": 3771,
      "Ġtouch": 3772,
      "Ġvocals": 3773,
      "ims": 3774,
      "ĠMinister": 3775,
      "irt": 3776,
      "ĠSeveral": 3777,
      "iences": 3778,
      "Ġmention": 3779,
      "ĠZeal": 3780,
      "osh": 3781,
      "ounded": 3782,
      "Ġ1992": 3783,
      "Ġri": 3784,
      "ĠMajor": 3785,
      "ector": 3786,
      "ĠCons": 3787,
      "Ġ41": 3788,
      "Ġaccount": 3789,
      "Ġdocument": 3790,
      "Ġabandon": 3791,
      "ĠWal": 3792,
      "road": 3793,
      "icted": 3794,
      "Ġrapid": 3795,
      "Ġenergy": 3796,
      "Ġnecess": 3797,
      "ares": 3798,
      "Ġmor": 3799,
      "quar": 3800,
      "Ġkilomet": 3801,
      "ĠKenn": 3802,
      "ervation": 3803,
      "echan": 3804,
      "ĠFore": 3805,
      "Ġdut": 3806,
      "Ġconstructed": 3807,
      "ening": 3808,
      "Ġtheme": 3809,
      "Ġris": 3810,
      "rug": 3811,
      "oses": 3812,
      "rier": 3813,
      "ĠFox": 3814,
      "ĠSum": 3815,
      "ette": 3816,
      "ĠTime": 3817,
      "Ġroyal": 3818,
      "Ġpick": 3819,
      "ishop": 3820,
      "Ġstra": 3821,
      "Ġnearby": 3822,
      "Ġhighly": 3823,
      "Ġseparate": 3824,
      "ĠZealand": 3825,
      "yr": 3826,
      "ĠEr": 3827,
      "Ġcontinue": 3828,
      "vention": 3829,
      "Ġprep": 3830,
      "ĠSo": 3831,
      "Ġchief": 3832,
      "Ġdrum": 3833,
      "ails": 3834,
      "Ġeffort": 3835,
      "Ġcas": 3836,
      "Ġpresented": 3837,
      "edic": 3838,
      "ĠHaw": 3839,
      "Ġtur": 3840,
      "ĠSar": 3841,
      "Ġcombat": 3842,
      "ĠMexico": 3843,
      "oper": 3844,
      "Ġpositions": 3845,
      "ĠAfrican": 3846,
      "Ġreduced": 3847,
      "Ġannual": 3848,
      "ĠBu": 3849,
      "ether": 3850,
      "Ġ400": 3851,
      "ibly": 3852,
      "Ġcontrovers": 3853,
      "ĠChris": 3854,
      "ĠMatt": 3855,
      "Ġdirectly": 3856,
      "ieut": 3857,
      "ĠMa": 3858,
      "ĠFour": 3859,
      "Ġ1930": 3860,
      "Ġlevels": 3861,
      "cel": 3862,
      "Ġmeans": 3863,
      "Ġcle": 3864,
      "Ġneigh": 3865,
      "ĠWall": 3866,
      "Ġnotes": 3867,
      "Ġattended": 3868,
      "Ġsevent": 3869,
      "Ġpractice": 3870,
      "Ġtried": 3871,
      "shire": 3872,
      "Ġcompos": 3873,
      "Ġforest": 3874,
      "uit": 3875,
      "emorial": 3876,
      "Ġ55": 3877,
      "Ġfast": 3878,
      "Ġhar": 3879,
      "Ġnuc": 3880,
      "Ġedition": 3881,
      "Ġtrain": 3882,
      "ĠLit": 3883,
      "ĠBrad": 3884,
      "ĠDar": 3885,
      "acher": 3886,
      "ado": 3887,
      "ĠChart": 3888,
      "ĠTre": 3889,
      "ĠBob": 3890,
      "arents": 3891,
      "Ġtwenty": 3892,
      "vement": 3893,
      "Ġmetal": 3894,
      "Ġ1993": 3895,
      "ĠMadonna": 3896,
      "Ġaccepted": 3897,
      "osen": 3898,
      "Ġwatch": 3899,
      "Ġstating": 3900,
      "Ġ1991": 3901,
      "Ġmovie": 3902,
      "Ġarchitect": 3903,
      "Ġtext": 3904,
      "rical": 3905,
      "ĠHel": 3906,
      "Ġrepe": 3907,
      "Ġcandid": 3908,
      "isation": 3909,
      "track": 3910,
      "Ġconcert": 3911,
      "ĠScotland": 3912,
      "Ġadvance": 3913,
      "stitute": 3914,
      "Ġ179": 3915,
      "Ġpair": 3916,
      "ĠJones": 3917,
      "Ġportray": 3918,
      "Ġdirection": 3919,
      "Ġfr": 3920,
      "irmed": 3921,
      "house": 3922,
      "ersey": 3923,
      "Äĩ": 3924,
      "Ġseem": 3925,
      "Ġdism": 3926,
      "ĠTheir": 3927,
      "Ġschools": 3928,
      "Ġlegal": 3929,
      "ĠAnn": 3930,
      "ani": 3931,
      "Ġreject": 3932,
      "eway": 3933,
      "lict": 3934,
      "inem": 3935,
      "ih": 3936,
      "wide": 3937,
      "Ġasp": 3938,
      "ĠManc": 3939,
      "icip": 3940,
      "fall": 3941,
      "Ġge": 3942,
      "Ġhorse": 3943,
      "ĠCross": 3944,
      "Ġthick": 3945,
      "Ġmarriage": 3946,
      "illery": 3947,
      "Ġ+": 3948,
      "aging": 3949,
      "Ġrecomm": 3950,
      "ĠGreek": 3951,
      "ĠDepartment": 3952,
      "light": 3953,
      "Ġefforts": 3954,
      "Ġmanaged": 3955,
      "Ġcollege": 3956,
      "ĠDou": 3957,
      "awn": 3958,
      "Ġ39": 3959,
      "Ġpurs": 3960,
      "like": 3961,
      "icient": 3962,
      "ĠGo": 3963,
      "Ġwing": 3964,
      "utions": 3965,
      "hy": 3966,
      "Ġresulting": 3967,
      "Ġending": 3968,
      "irit": 3969,
      "ieutenant": 3970,
      "ĠThree": 3971,
      "band": 3972,
      "Ġshowed": 3973,
      "Ġdropped": 3974,
      "Ġresponsible": 3975,
      "ĠMic": 3976,
      "ĠPost": 3977,
      "MS": 3978,
      "ĠInfantry": 3979,
      "Ġ182": 3980,
      "Ġnation": 3981,
      "Ġdisplay": 3982,
      "Ġinside": 3983,
      "illed": 3984,
      "ĠFoot": 3985,
      "ita": 3986,
      "Ġcases": 3987,
      "Ġkept": 3988,
      "Ġcust": 3989,
      "Ġenvironment": 3990,
      "ĠLad": 3991,
      "ĠBost": 3992,
      "Ġ48": 3993,
      "Ġculture": 3994,
      "Ġrare": 3995,
      "Ġmeaning": 3996,
      "Ġrat": 3997,
      "ĠLeg": 3998,
      "Ġcyclone": 3999,
      "olf": 4000,
      "Ġdom": 4001,
      "Ġincorpor": 4002,
      "Ġbegins": 4003,
      "Ġ42": 4004,
      "Ġvariety": 4005,
      "ceeded": 4006,
      "Ġmorning": 4007,
      "Ġsubst": 4008,
      "pe": 4009,
      "Ġcerem": 4010,
      "pass": 4011,
      "Ġhouses": 4012,
      "ĠStone": 4013,
      "Ġforms": 4014,
      "Ġchampionship": 4015,
      "ĠService": 4016,
      "Ġwords": 4017,
      "rane": 4018,
      "Ġarrest": 4019,
      "Ġschol": 4020,
      "ĠCreek": 4021,
      "Ġyard": 4022,
      "peror": 4023,
      "ĠWilliams": 4024,
      "ĠHung": 4025,
      "Ġoil": 4026,
      "ĠRecords": 4027,
      "ĠSecret": 4028,
      "Ġmarked": 4029,
      "Ġinches": 4030,
      "cend": 4031,
      "Ġcontinues": 4032,
      "Ġspl": 4033,
      "ini": 4034,
      "Ġscience": 4035,
      "ĠBC": 4036,
      "Ġperm": 4037,
      "Ġ181": 4038,
      "Ġsymb": 4039,
      "gl": 4040,
      "ĠNews": 4041,
      "gypt": 4042,
      "ecting": 4043,
      "Åį": 4044,
      "ols": 4045,
      "Ġbank": 4046,
      "ĠHal": 4047,
      "ĠStan": 4048,
      "ĠParliament": 4049,
      "Ġuses": 4050,
      "Ġeconomic": 4051,
      "ĠSur": 4052,
      "writ": 4053,
      "cle": 4054,
      "Ġsource": 4055,
      "ĠGames": 4056,
      "thel": 4057,
      "bed": 4058,
      "ĠFin": 4059,
      "ras": 4060,
      "ĠTro": 4061,
      "Ġquality": 4062,
      "Ġdefend": 4063,
      "ĠPan": 4064,
      "ĠTri": 4065,
      "ulations": 4066,
      "Ġlear": 4067,
      "Ġhundred": 4068,
      "Ġsettle": 4069,
      "Ġimpact": 4070,
      "Ġstarting": 4071,
      "Ġconducted": 4072,
      "ĠBook": 4073,
      "thur": 4074,
      "Ġspecific": 4075,
      "wh": 4076,
      "Ġstrugg": 4077,
      "Ġallowing": 4078,
      "ĠEgypt": 4079,
      "ĠSociety": 4080,
      "Ġbeat": 4081,
      "Ġ1942": 4082,
      "Ġpresence": 4083,
      "ĠSol": 4084,
      "Ġamount": 4085,
      "Ġdu": 4086,
      "ĠJer": 4087,
      "Ġsides": 4088,
      "ĠOh": 4089,
      "Ġviewers": 4090,
      "Ġcaptain": 4091,
      "sych": 4092,
      "een": 4093,
      "Ġdance": 4094,
      "Ġmetres": 4095,
      "ingu": 4096,
      "Ġchap": 4097,
      "Ġunivers": 4098,
      "Ġsuppl": 4099,
      "ĠLu": 4100,
      "Ġexhib": 4101,
      "Ġrule": 4102,
      "Ġple": 4103,
      "ĠPrince": 4104,
      "ĠSouthern": 4105,
      "ĠVer": 4106,
      "ĠStephen": 4107,
      "Ġdistinct": 4108,
      "Ġmultiple": 4109,
      "ĠGeorg": 4110,
      "ĠSat": 4111,
      "ding": 4112,
      "Ġtransferred": 4113,
      "Ġpotential": 4114,
      "ĠCommittee": 4115,
      "Ġforeign": 4116,
      "Ġ47": 4117,
      "ĠLatin": 4118,
      "Ġcontrast": 4119,
      "ĠOxford": 4120,
      "Ġ65": 4121,
      "Ġpeaked": 4122,
      "inet": 4123,
      "itiz": 4124,
      "Ġenemy": 4125,
      "Ġyour": 4126,
      "arian": 4127,
      "ĠSil": 4128,
      "Ġtraffic": 4129,
      "Ġbecomes": 4130,
      "Ġmess": 4131,
      "ĠSpec": 4132,
      "ping": 4133,
      "Ġowned": 4134,
      "Ġthings": 4135,
      "Ġfounded": 4136,
      "Ġgreater": 4137,
      "ĠJoseph": 4138,
      "ĠLike": 4139,
      "Ġvocal": 4140,
      "ĠAdmiral": 4141,
      "Ġopt": 4142,
      "Ġconcluded": 4143,
      "Ġportion": 4144,
      "very": 4145,
      "Ġcastle": 4146,
      "Ġscoring": 4147,
      "ĠCamb": 4148,
      "ider": 4149,
      "Ġrespond": 4150,
      "ym": 4151,
      "Ġstories": 4152,
      "Ġproperty": 4153,
      "iance": 4154,
      "Ġattempts": 4155,
      "Ġencoun": 4156,
      "ĠBoston": 4157,
      "rong": 4158,
      "anes": 4159,
      "Ġrelatively": 4160,
      "kn": 4161,
      "ĠTw": 4162,
      "ĠChief": 4163,
      "ĠManchester": 4164,
      "Ġprimarily": 4165,
      "Ġdemonst": 4166,
      "ĠHarrison": 4167,
      "ĠJeff": 4168,
      "Ġfinancial": 4169,
      "Ġfederal": 4170,
      "ograp": 4171,
      "ĠClass": 4172,
      "ressive": 4173,
      "ellig": 4174,
      "ĠForm": 4175,
      "ĠCaptain": 4176,
      "ĠBecause": 4177,
      "ĠBefore": 4178,
      "Ġactually": 4179,
      "Ġanimals": 4180,
      "ĠSwed": 4181,
      "Ġobserved": 4182,
      "ĠHurricane": 4183,
      "Ġtourn": 4184,
      "Ġlif": 4185,
      "ĠWin": 4186,
      "Ġcollection": 4187,
      "ĠTim": 4188,
      "Ġopportun": 4189,
      "fect": 4190,
      "ĠVietn": 4191,
      "ĠBat": 4192,
      "Ġtitled": 4193,
      "Ġ52": 4194,
      "ĠDen": 4195,
      "Ġfeaturing": 4196,
      "istics": 4197,
      "Ġwriters": 4198,
      "Ġ46": 4199,
      "Ġwrite": 4200,
      "Ġ1944": 4201,
      "ĠDef": 4202,
      "Ġjournal": 4203,
      "eds": 4204,
      "Ġwa": 4205,
      "ĠBridge": 4206,
      "ees": 4207,
      "ĠFred": 4208,
      "Ġstrength": 4209,
      "Ġwor": 4210,
      "umber": 4211,
      "Ġinch": 4212,
      "Ġmechan": 4213,
      "Ġweaken": 4214,
      "Ġsituation": 4215,
      "ĠOtt": 4216,
      "Ġspot": 4217,
      "Ġpaid": 4218,
      "Ġdistance": 4219,
      "Ġpremi": 4220,
      "Ġparents": 4221,
      "ĠCommission": 4222,
      "Ġindependent": 4223,
      "ĠBattalion": 4224,
      "Ġfigure": 4225,
      "Ġshare": 4226,
      "mas": 4227,
      "rel": 4228,
      "Ġmel": 4229,
      "Ġactor": 4230,
      "Ġ64": 4231,
      "Ġacting": 4232,
      "Ġcompanies": 4233,
      "Ġdivided": 4234,
      "ĠLittle": 4235,
      "ĠParis": 4236,
      "Ġmind": 4237,
      "Ġ43": 4238,
      "stein": 4239,
      "Ġonto": 4240,
      "ĠProdu": 4241,
      "astic": 4242,
      "ĠLuc": 4243,
      "Ġcollabor": 4244,
      "ĠLife": 4245,
      "ĠColumb": 4246,
      "ĠCarl": 4247,
      "Ġtarget": 4248,
      "anna": 4249,
      "Ġslightly": 4250,
      "Ġfunction": 4251,
      "Ġpiece": 4252,
      "ĠSeries": 4253,
      "Ġreform": 4254,
      "ĠMod": 4255,
      "Ġselling": 4256,
      "Ġ44": 4257,
      "perial": 4258,
      "ĠEntertain": 4259,
      "aud": 4260,
      "ricket": 4261,
      "Ġpowerful": 4262,
      "ĠGra": 4263,
      "Ġtorped": 4264,
      "Ġconcent": 4265,
      "chest": 4266,
      "Ġinnings": 4267,
      "Ġrating": 4268,
      "ĠMax": 4269,
      "ĠÎ": 4270,
      "thlet": 4271,
      "oration": 4272,
      "ĠBBC": 4273,
      "Ġplays": 4274,
      "istry": 4275,
      "Ġrough": 4276,
      "Ġlot": 4277,
      "Ġtoday": 4278,
      "lam": 4279,
      "Ġbroke": 4280,
      "uge": 4281,
      "Ġcho": 4282,
      "Ġera": 4283,
      "osaur": 4284,
      "ĠPop": 4285,
      "annel": 4286,
      "ĠCroat": 4287,
      "Ġactions": 4288,
      "Ġwaters": 4289,
      "Ġultimately": 4290,
      "ĠOs": 4291,
      "ĠHistor": 4292,
      "Ġtrial": 4293,
      "Ġsquare": 4294,
      "Ġmaximum": 4295,
      "rown": 4296,
      "ada": 4297,
      "Ġdise": 4298,
      "Ġtend": 4299,
      "itan": 4300,
      "Ġpilot": 4301,
      "load": 4302,
      "Ġbound": 4303,
      "Ġlog": 4304,
      "illa": 4305,
      "Ġinterp": 4306,
      "rupt": 4307,
      "Ġcompletely": 4308,
      "ĠAcademy": 4309,
      "Ġblue": 4310,
      "under": 4311,
      "Ġsought": 4312,
      "Ġ1920": 4313,
      "Ġgar": 4314,
      "oti": 4315,
      "Ġ1945": 4316,
      "mond": 4317,
      "Ġscale": 4318,
      "mark": 4319,
      "Ġsociety": 4320,
      "ĠLine": 4321,
      "Ġess": 4322,
      "Ġbehav": 4323,
      "Ġhus": 4324,
      "ĠMuseum": 4325,
      "ĠSaint": 4326,
      "Ġmainly": 4327,
      "ĠSk": 4328,
      "alle": 4329,
      "ota": 4330,
      "Ġdesignated": 4331,
      "Ġ1941": 4332,
      "za": 4333,
      "ĠHor": 4334,
      "omy": 4335,
      "Ġconver": 4336,
      "Ġofficials": 4337,
      "ĠVan": 4338,
      "Ġstruck": 4339,
      "Ġ150": 4340,
      "Ġtransl": 4341,
      "cers": 4342,
      "ylvan": 4343,
      "Ġactivity": 4344,
      "Ġpolicy": 4345,
      "Ġcombined": 4346,
      "Ġsay": 4347,
      "ĠWay": 4348,
      "Ġinfluenced": 4349,
      "Ġwear": 4350,
      "olved": 4351,
      "Ġcorn": 4352,
      "iano": 4353,
      "Ġsearch": 4354,
      "AS": 4355,
      "ĠEntertainment": 4356,
      "ĠArab": 4357,
      "Ġvess": 4358,
      "ĠItaly": 4359,
      "ented": 4360,
      "Ġthous": 4361,
      "Ġcalling": 4362,
      "racted": 4363,
      "Ġalongside": 4364,
      "Ġnortheast": 4365,
      "Ġseconds": 4366,
      "Ġbatter": 4367,
      "ala": 4368,
      "ĠBrigade": 4369,
      "Ġsout": 4370,
      "ĠWind": 4371,
      "orses": 4372,
      "while": 4373,
      "ĠAmericans": 4374,
      "Ġwinter": 4375,
      "ĠConf": 4376,
      "Ġsources": 4377,
      "ĠLee": 4378,
      "Ġseg": 4379,
      "Ġbackground": 4380,
      "phy": 4381,
      "ĠIre": 4382,
      "Ġwebs": 4383,
      "aine": 4384,
      "Ġice": 4385,
      "Ġnews": 4386,
      "udd": 4387,
      "Ġthir": 4388,
      "ĠTod": 4389,
      "Ġtheory": 4390,
      "rative": 4391,
      "Ġrecent": 4392,
      "ĠAlb": 4393,
      "Ġsuc": 4394,
      "TV": 4395,
      "Ġmem": 4396,
      "Ġcrow": 4397,
      "Ġgained": 4398,
      "Ġnominated": 4399,
      "Ġplatform": 4400,
      "HL": 4401,
      "onn": 4402,
      "Ġartists": 4403,
      "adel": 4404,
      "ĠRegiment": 4405,
      "Ġwidely": 4406,
      "Ġnaval": 4407,
      "quarters": 4408,
      "Ġsystems": 4409,
      "Ġpromoted": 4410,
      "Ġelectric": 4411,
      "Ġconfirmed": 4412,
      "ube": 4413,
      "ĠIreland": 4414,
      "pson": 4415,
      "Ġreaching": 4416,
      "Ġproved": 4417,
      "Ġresults": 4418,
      "ĠAvenue": 4419,
      "Ġpassing": 4420,
      "ibrary": 4421,
      "ĠFleet": 4422,
      "Ġalbums": 4423,
      "ĠGood": 4424,
      "ĠEll": 4425,
      "Ġexplained": 4426,
      "Ġsubsequent": 4427,
      "Ġconflict": 4428,
      "Ġgreatest": 4429,
      "ero": 4430,
      "Ġwick": 4431,
      "Ġcontent": 4432,
      "Ġinvasion": 4433,
      "Ġir": 4434,
      "Ġsn": 4435,
      "ĠAut": 4436,
      "ĠRay": 4437,
      "Ġ1989": 4438,
      "Ġcoming": 4439,
      "Ġcharge": 4440,
      "Ġhero": 4441,
      "Ġpeace": 4442,
      "Ġresist": 4443,
      "Ġsixth": 4444,
      "hew": 4445,
      "Ġnorthwest": 4446,
      "Ġweather": 4447,
      "oured": 4448,
      "Ġcounty": 4449,
      "Ġadj": 4450,
      "ĠOrig": 4451,
      "Ġshortly": 4452,
      "grad": 4453,
      "town": 4454,
      "Ġ1943": 4455,
      "aga": 4456,
      "ĠBus": 4457,
      "Ġversions": 4458,
      "ĠSub": 4459,
      "Ġpath": 4460,
      "aling": 4461,
      "Ġserve": 4462,
      "Ġcausing": 4463,
      "Ġsays": 4464,
      "Ġsust": 4465,
      "ĠLo": 4466,
      "Ġ51": 4467,
      "Ġexpressed": 4468,
      "iced": 4469,
      "Ġreception": 4470,
      "Ġseek": 4471,
      "ĠVictoria": 4472,
      "ĠSant": 4473,
      "Ġburn": 4474,
      "itness": 4475,
      "ĠCatholic": 4476,
      "Ġresidents": 4477,
      "Ġemot": 4478,
      "bon": 4479,
      "Ġborder": 4480,
      "ĠNorm": 4481,
      "ĠCharl": 4482,
      "ĠTropical": 4483,
      "ĠWork": 4484,
      "Ġchem": 4485,
      "Ġsoundtrack": 4486,
      "ansion": 4487,
      "ĠValley": 4488,
      "Ġcities": 4489,
      "ĠAdd": 4490,
      "ĠMat": 4491,
      "ips": 4492,
      "Ġgreen": 4493,
      "Ġseasons": 4494,
      "tation": 4495,
      "ĠNin": 4496,
      "ategory": 4497,
      "Ġappearances": 4498,
      "Ġsense": 4499,
      "ĠDi": 4500,
      "ĠLight": 4501,
      "Ġsexual": 4502,
      "Ġhospital": 4503,
      "Ġrequire": 4504,
      "AA": 4505,
      "infall": 4506,
      "ĠMiddle": 4507,
      "Ġpun": 4508,
      "Ġphysical": 4509,
      "Ġidentified": 4510,
      "Ġolder": 4511,
      "ighth": 4512,
      "Ġhands": 4513,
      "ĠLive": 4514,
      "arden": 4515,
      "Ġiron": 4516,
      "ĠRam": 4517,
      "ĠDun": 4518,
      "ĠThough": 4519,
      "Ġtrue": 4520,
      "Ġtells": 4521,
      "Ġoffer": 4522,
      "ĠLiber": 4523,
      "Ġdedic": 4524,
      "Ġkg": 4525,
      "ĠRy": 4526,
      "unction": 4527,
      "ĠCommun": 4528,
      "ysis": 4529,
      "Ġartillery": 4530,
      "ancy": 4531,
      "ĠShow": 4532,
      "Ġrepresented": 4533,
      "ĠTop": 4534,
      "Ġweapons": 4535,
      "ĠVol": 4536,
      "Ġextra": 4537,
      "Ġgas": 4538,
      "ĠFootball": 4539,
      "Ġahead": 4540,
      "ĠThrough": 4541,
      "eption": 4542,
      "Ġpal": 4543,
      "aded": 4544,
      "ĠMen": 4545,
      "ronic": 4546,
      "ylvania": 4547,
      "Ġeas": 4548,
      "ĠKar": 4549,
      "ĠJul": 4550,
      "Ġheavily": 4551,
      "ĠBey": 4552,
      "ĠUpon": 4553,
      "ĠYoung": 4554,
      "Ġsupp": 4555,
      "ĠDirect": 4556,
      "abeth": 4557,
      "itable": 4558,
      "ĠTay": 4559,
      "Ġavoid": 4560,
      "ĠDutch": 4561,
      "lers": 4562,
      "Ġdefense": 4563,
      "Ġchallen": 4564,
      "Ġstudent": 4565,
      "Ġagg": 4566,
      "ĠWeek": 4567,
      "Ġalone": 4568,
      "Ġimage": 4569,
      "Ġspread": 4570,
      "Ġapparent": 4571,
      "Ġstudies": 4572,
      "Ġofficially": 4573,
      "ĠEliz": 4574,
      "Ġhusband": 4575,
      "known": 4576,
      "Ġdistrict": 4577,
      "ĠIll": 4578,
      "Ġexecutive": 4579,
      "Ġbit": 4580,
      "Ġinstit": 4581,
      "ĠAlbert": 4582,
      "ĠFre": 4583,
      "bur": 4584,
      "essions": 4585,
      "Ġdebuted": 4586,
      "Ġwild": 4587,
      "Ġprominent": 4588,
      "Ġcapture": 4589,
      "Ġpack": 4590,
      "Ġsend": 4591,
      "Ġconsisted": 4592,
      "Ġinstrument": 4593,
      "Ġinjury": 4594,
      "Ġfired": 4595,
      "Ġorganization": 4596,
      "Ġequipment": 4597,
      "ĠRog": 4598,
      "ports": 4599,
      "Ġresc": 4600,
      "Ġstone": 4601,
      "pool": 4602,
      "Ġpattern": 4603,
      "ĠFar": 4604,
      "Ġprepar": 4605,
      "ĠBre": 4606,
      "Ġargued": 4607,
      "ĠDam": 4608,
      "Ġaired": 4609,
      "Ġfigures": 4610,
      "ĠBond": 4611,
      "Ġsurpris": 4612,
      "Ġexped": 4613,
      "urban": 4614,
      "Ġgrowth": 4615,
      "Ġeth": 4616,
      "Ġpict": 4617,
      "acity": 4618,
      "ĠCivil": 4619,
      "ĠHomer": 4620,
      "Ġbud": 4621,
      "Ġhun": 4622,
      "Ġcouple": 4623,
      "Ġgraph": 4624,
      "Ġdoing": 4625,
      "Ġreturning": 4626,
      "Ġmagn": 4627,
      "Ġring": 4628,
      "Ġcontemporary": 4629,
      "ushed": 4630,
      "Ġpoet": 4631,
      "Ġcert": 4632,
      "lines": 4633,
      "rog": 4634,
      "Ġpan": 4635,
      "Ġweight": 4636,
      "Ġox": 4637,
      "Ġlaid": 4638,
      "Ġdoub": 4639,
      "Ġhabit": 4640,
      "Ġearth": 4641,
      "Ġleaders": 4642,
      "Ġstep": 4643,
      "Ġfloor": 4644,
      "Ġmatter": 4645,
      "Ġaffected": 4646,
      "ĠNorthern": 4647,
      "ĠGal": 4648,
      "Ġpieces": 4649,
      "Ġtun": 4650,
      "Ġ600": 4651,
      "appen": 4652,
      "amber": 4653,
      "Ġpropos": 4654,
      "ĠStorm": 4655,
      "ias": 4656,
      "Ġmaintained": 4657,
      "inson": 4658,
      "Ġrang": 4659,
      "Ġoccasion": 4660,
      "Ġshell": 4661,
      "ĠHard": 4662,
      "Ġhere": 4663,
      "ifying": 4664,
      "Ġvisited": 4665,
      "Ġmaintain": 4666,
      "ental": 4667,
      "Ġcommunic": 4668,
      "ĠDaniel": 4669,
      "ĠHa": 4670,
      "Ġcomes": 4671,
      "Ġspeech": 4672,
      "Ġtermin": 4673,
      "Ġcriticized": 4674,
      "emic": 4675,
      "Ġhyd": 4676,
      "Ġactivities": 4677,
      "stone": 4678,
      "Ġrain": 4679,
      "rat": 4680,
      "ĠJon": 4681,
      "ĠCarolina": 4682,
      "ockey": 4683,
      "Ġexec": 4684,
      "Ġattract": 4685,
      "acement": 4686,
      "Ġhall": 4687,
      "ola": 4688,
      "Ġcitiz": 4689,
      "Ġtournament": 4690,
      "Ġreign": 4691,
      "Ġemph": 4692,
      "Ġtoward": 4693,
      "ocked": 4694,
      "Ġsingles": 4695,
      "uls": 4696,
      "Ġdrug": 4697,
      "Ġtrees": 4698,
      "eed": 4699,
      "Ġreference": 4700,
      "ners": 4701,
      "ĠScottish": 4702,
      "Ġcrowd": 4703,
      "ĠTem": 4704,
      "Ġsenior": 4705,
      "Ġformation": 4706,
      "elve": 4707,
      "Ġ53": 4708,
      "Ġadapt": 4709,
      "Ġ1987": 4710,
      "Ġsurre": 4711,
      "ĠRom": 4712,
      "ĠMarsh": 4713,
      "Ġsetting": 4714,
      "Ġmedical": 4715,
      "ivity": 4716,
      "Ġworldwide": 4717,
      "ĠSystem": 4718,
      "Ġterritory": 4719,
      "Ġtrying": 4720,
      "ĠGovernment": 4721,
      "estic": 4722,
      "ĠHolly": 4723,
      "Ġ1988": 4724,
      "uct": 4725,
      "Ġappl": 4726,
      "Ġstations": 4727,
      "orne": 4728,
      "ruit": 4729,
      "Ġdog": 4730,
      "Ġbul": 4731,
      "Ġnegoti": 4732,
      "Ġbirds": 4733,
      "ĠWrit": 4734,
      "ĠFantasy": 4735,
      "Ġgod": 4736,
      "ĠOcean": 4737,
      "gian": 4738,
      "ĠOperation": 4739,
      "eller": 4740,
      "Ġdoll": 4741,
      "ĠBackground": 4742,
      "ĠField": 4743,
      "Ġmachine": 4744,
      "Ġfellow": 4745,
      "ĠGovernor": 4746,
      "Ġmurder": 4747,
      "embly": 4748,
      "ĠRod": 4749,
      "Ġclaims": 4750,
      "ĠDistrict": 4751,
      "ĠHome": 4752,
      "Ġcell": 4753,
      "Ġdispl": 4754,
      "Ġ85": 4755,
      "ĠDev": 4756,
      "Ġhistorian": 4757,
      "ĠGuard": 4758,
      "Ġrainfall": 4759,
      "Ġrisk": 4760,
      "ĠChe": 4761,
      "omers": 4762,
      "Ġaccident": 4763,
      "ĠPenns": 4764,
      "Ġfully": 4765,
      "ĠColon": 4766,
      "Ġload": 4767,
      "uled": 4768,
      "Ġvalue": 4769,
      "Ġtherefore": 4770,
      "ote": 4771,
      "Ġsplit": 4772,
      "bit": 4773,
      "resh": 4774,
      "ĠDuke": 4775,
      "Ġchosen": 4776,
      "Ġtreatment": 4777,
      "Ġuniversity": 4778,
      "Ġguest": 4779,
      "ĠShort": 4780,
      "velopment": 4781,
      "rael": 4782,
      "Ġsens": 4783,
      "Ġtwice": 4784,
      "ĠStudios": 4785,
      "Ġfrequently": 4786,
      "ĠGirl": 4787,
      "Ġsupply": 4788,
      "agn": 4789,
      "ĠPolish": 4790,
      "ĠLew": 4791,
      "Ġreports": 4792,
      "ordin": 4793,
      "stitution": 4794,
      "Ġleaves": 4795,
      "ĠBeat": 4796,
      "Ġgovernor": 4797,
      "illy": 4798,
      "ayer": 4799,
      "Ġpaper": 4800,
      "gu": 4801,
      "Ġut": 4802,
      "ĠSenate": 4803,
      "Ġremark": 4804,
      "aly": 4805,
      "Ġdyn": 4806,
      "ampion": 4807,
      "ĠEastern": 4808,
      "ledge": 4809,
      "Ġlabel": 4810,
      "izes": 4811,
      "Ġfaced": 4812,
      "azz": 4813,
      "ĠMD": 4814,
      "Ġopin": 4815,
      "Ġwalls": 4816,
      "Ġfollows": 4817,
      "ĠCorn": 4818,
      "Ġbillion": 4819,
      "Ġoperated": 4820,
      "ĠBart": 4821,
      "Ġgrew": 4822,
      "antine": 4823,
      "ĠRos": 4824,
      "ufact": 4825,
      "Ġsurrounding": 4826,
      "Ġplanet": 4827,
      "ĠMean": 4828,
      "min": 4829,
      "Ġswe": 4830,
      "rect": 4831,
      "ĠAndrew": 4832,
      "orter": 4833,
      "antly": 4834,
      "Ġcontained": 4835,
      "onents": 4836,
      "gend": 4837,
      "Ġcondition": 4838,
      "resp": 4839,
      "Ġdegree": 4840,
      "Ġbal": 4841,
      "Ġherself": 4842,
      "Ġhorses": 4843,
      "Ġmanufact": 4844,
      "ĠChristmas": 4845,
      "ĠNight": 4846,
      "ety": 4847,
      "Ġcolor": 4848,
      "isco": 4849,
      "ĠJud": 4850,
      "Ġsle": 4851,
      "Ġaccompan": 4852,
      "Ġwounded": 4853,
      "rance": 4854,
      "Ġtypically": 4855,
      "Ġescape": 4856,
      "ĠAllied": 4857,
      "Ġ54": 4858,
      "Ġpasses": 4859,
      "Ġunf": 4860,
      "Ġmaster": 4861,
      "Ġsimply": 4862,
      "ĠWilson": 4863,
      "Ġbrown": 4864,
      "Ġfuel": 4865,
      "Ã¨": 4866,
      "isters": 4867,
      "Ġreinf": 4868,
      "utation": 4869,
      "Ġrailway": 4870,
      "ĠInst": 4871,
      "Ġelement": 4872,
      "Ġdraft": 4873,
      "Ġdang": 4874,
      "ĠTaylor": 4875,
      "aming": 4876,
      "Ġeditor": 4877,
      "Ġlives": 4878,
      "la": 4879,
      "Ġ1986": 4880,
      "Ġorders": 4881,
      "Ġarms": 4882,
      "ĠElizabeth": 4883,
      "Ġphil": 4884,
      "mit": 4885,
      "fully": 4886,
      "more": 4887,
      "Ġserving": 4888,
      "Ġnothing": 4889,
      "ographer": 4890,
      "Ġcamer": 4891,
      "ĠHum": 4892,
      "ĠAlexander": 4893,
      "uous": 4894,
      "Ġauthority": 4895,
      "Ġchose": 4896,
      "ĠMike": 4897,
      "Ġopposed": 4898,
      "Ġworkers": 4899,
      "Ġvote": 4900,
      "Ġmoment": 4901,
      "ĠGi": 4902,
      "Ġconsecutive": 4903,
      "Ġcannot": 4904,
      "ricult": 4905,
      "ĠPen": 4906,
      "ĠEach": 4907,
      "Ġnewly": 4908,
      "Ġ95": 4909,
      "ĠJoe": 4910,
      "tar": 4911,
      "ĠOf": 4912,
      "Ġnative": 4913,
      "ĠJac": 4914,
      "Ġ56": 4915,
      "Ġfan": 4916,
      "Ġexperiment": 4917,
      "ucky": 4918,
      "Ġunknown": 4919,
      "Ġ97": 4920,
      "isf": 4921,
      "Ġparticipated": 4922,
      "ager": 4923,
      "Ġgrowing": 4924,
      "rich": 4925,
      "ĠPers": 4926,
      "Ġwebsite": 4927,
      "Ġcasual": 4928,
      "Ġemphas": 4929,
      "Ġpsych": 4930,
      "Ġattrib": 4931,
      "ancing": 4932,
      "ãĤ": 4933,
      "ĠDet": 4934,
      "Ġproducers": 4935,
      "Ġbass": 4936,
      "ef": 4937,
      "Ġnewspaper": 4938,
      "Ġfair": 4939,
      "ĠCastle": 4940,
      "Ġbenef": 4941,
      "Ġlosing": 4942,
      "Ã¤": 4943,
      "ĠExp": 4944,
      "ĠFestival": 4945,
      "ĠLand": 4946,
      "Ġadvanced": 4947,
      "Ġadopted": 4948,
      "ilies": 4949,
      "Ġfilming": 4950,
      "imens": 4951,
      "ĠSound": 4952,
      "Ġheard": 4953,
      "Ġspirit": 4954,
      "Ġfeed": 4955,
      "Ġsevere": 4956,
      "ĠPennsylvania": 4957,
      "pton": 4958,
      "Ġoffensive": 4959,
      "Ġfirm": 4960,
      "Ġopposition": 4961,
      "then": 4962,
      "Ġfiction": 4963,
      "ype": 4964,
      "ĠRet": 4965,
      "Ġextend": 4966,
      "ĠWhat": 4967,
      "Ġguard": 4968,
      "ĠWat": 4969,
      "Ġcapacity": 4970,
      "Ġrom": 4971,
      "ĠHead": 4972,
      "orship": 4973,
      "ĠIslands": 4974,
      "Ġbasis": 4975,
      "Ġcouncil": 4976,
      "Ġsequence": 4977,
      "Ġactors": 4978,
      "ĠCard": 4979,
      "ĠWW": 4980,
      "zy": 4981,
      "Ġends": 4982,
      "Ġ177": 4983,
      "Ġast": 4984,
      "ĠReception": 4985,
      "ĠHy": 4986,
      "TC": 4987,
      "anda": 4988,
      "Ġweak": 4989,
      "Ġsquadron": 4990,
      "uses": 4991,
      "ĠGall": 4992,
      "ĠBlue": 4993,
      "Ġprin": 4994,
      "Ġcompar": 4995,
      "Ġadvant": 4996,
      "Ġrear": 4997,
      "Ġabandoned": 4998,
      "ura": 4999
    },
    "merges": [
      [
        "Ġ",
        "t"
      ],
      [
        "h",
        "e"
      ],
      [
        "Ġ",
        "a"
      ],
      [
        "i",
        "n"
      ],
      [
        "Ġt",
        "he"
      ],
      [
        "e",
        "r"
      ],
      [
        "o",
        "n"
      ],
      [
        "Ġ",
        ","
      ],
      [
        "r",
        "e"
      ],
      [
        "Ġ",
        "s"
      ],
      [
        "e",
        "d"
      ],
      [
        "Ġ",
        "w"
      ],
      [
        "Ġ",
        "o"
      ],
      [
        "n",
        "d"
      ],
      [
        "a",
        "t"
      ],
      [
        "Ġ",
        "."
      ],
      [
        "o",
        "r"
      ],
      [
        "e",
        "n"
      ],
      [
        "Ġ",
        "c"
      ],
      [
        "i",
        "t"
      ],
      [
        "Ġ",
        "f"
      ],
      [
        "i",
        "s"
      ],
      [
        "e",
        "s"
      ],
      [
        "a",
        "r"
      ],
      [
        "Ġ",
        "b"
      ],
      [
        "Ġo",
        "f"
      ],
      [
        "a",
        "n"
      ],
      [
        "Ġ",
        "in"
      ],
      [
        "a",
        "l"
      ],
      [
        "in",
        "g"
      ],
      [
        "Ġ",
        "p"
      ],
      [
        "a",
        "s"
      ],
      [
        "Ġa",
        "nd"
      ],
      [
        "Ġ",
        "Ċ"
      ],
      [
        "Ġt",
        "o"
      ],
      [
        "i",
        "c"
      ],
      [
        "r",
        "o"
      ],
      [
        "Ġ",
        "m"
      ],
      [
        "Ġ",
        "d"
      ],
      [
        "Ġ",
        "h"
      ],
      [
        "i",
        "on"
      ],
      [
        "l",
        "e"
      ],
      [
        "o",
        "u"
      ],
      [
        "Ġ",
        "T"
      ],
      [
        "Ġ",
        "re"
      ],
      [
        "Ġ",
        "="
      ],
      [
        "Ġ",
        "S"
      ],
      [
        "i",
        "l"
      ],
      [
        "Ġ",
        "A"
      ],
      [
        "en",
        "t"
      ],
      [
        "Ġ",
        "\""
      ],
      [
        "Ġ",
        "1"
      ],
      [
        "Ġt",
        "h"
      ],
      [
        "s",
        "t"
      ],
      [
        "e",
        "l"
      ],
      [
        "Ġ",
        "C"
      ],
      [
        "Ġ",
        "l"
      ],
      [
        "Ġ",
        "@"
      ],
      [
        "o",
        "m"
      ],
      [
        "Ġ",
        "e"
      ],
      [
        "a",
        "m"
      ],
      [
        "Ġ",
        "n"
      ],
      [
        "a",
        "d"
      ],
      [
        "a",
        "c"
      ],
      [
        "Ġw",
        "as"
      ],
      [
        "Ġ",
        "M"
      ],
      [
        "Ġ",
        "B"
      ],
      [
        "e",
        "c"
      ],
      [
        "Ġ",
        "on"
      ],
      [
        "ĠT",
        "he"
      ],
      [
        "l",
        "y"
      ],
      [
        "u",
        "r"
      ],
      [
        "Ġ",
        "'"
      ],
      [
        "e",
        "t"
      ],
      [
        "i",
        "d"
      ],
      [
        "o",
        "l"
      ],
      [
        "Ġ",
        "g"
      ],
      [
        "i",
        "m"
      ],
      [
        "Ġ",
        "I"
      ],
      [
        "-",
        "@"
      ],
      [
        "Ġ@",
        "-@"
      ],
      [
        "Ġf",
        "or"
      ],
      [
        "i",
        "r"
      ],
      [
        "i",
        "g"
      ],
      [
        "i",
        "v"
      ],
      [
        "o",
        "t"
      ],
      [
        "t",
        "er"
      ],
      [
        "Ġ",
        "H"
      ],
      [
        "u",
        "t"
      ],
      [
        "Ġa",
        "s"
      ],
      [
        "u",
        "s"
      ],
      [
        "o",
        "w"
      ],
      [
        "it",
        "h"
      ],
      [
        "a",
        "y"
      ],
      [
        "Ġ",
        "2"
      ],
      [
        "Ġ",
        "P"
      ],
      [
        "Ġs",
        "t"
      ],
      [
        "Ġ",
        "he"
      ],
      [
        "v",
        "er"
      ],
      [
        "at",
        "ion"
      ],
      [
        "Ġw",
        "ith"
      ],
      [
        "Ġb",
        "e"
      ],
      [
        "Ġ",
        "R"
      ],
      [
        "Ġth",
        "at"
      ],
      [
        "Ġ",
        "D"
      ],
      [
        "c",
        "e"
      ],
      [
        "u",
        "n"
      ],
      [
        "e",
        "m"
      ],
      [
        "Ġ",
        "W"
      ],
      [
        "Ġw",
        "h"
      ],
      [
        "Ġ",
        "F"
      ],
      [
        "c",
        "h"
      ],
      [
        "Ġb",
        "y"
      ],
      [
        "t",
        "h"
      ],
      [
        "Ġa",
        "l"
      ],
      [
        "Ġ",
        ")"
      ],
      [
        "Ġ",
        "("
      ],
      [
        "Ġ",
        "L"
      ],
      [
        "u",
        "l"
      ],
      [
        "Ġ",
        "G"
      ],
      [
        "Ġ",
        "is"
      ],
      [
        "Ġc",
        "on"
      ],
      [
        "er",
        "s"
      ],
      [
        "Ġa",
        "t"
      ],
      [
        "c",
        "t"
      ],
      [
        "Ġ",
        "N"
      ],
      [
        "r",
        "a"
      ],
      [
        "o",
        "s"
      ],
      [
        "Ġ1",
        "9"
      ],
      [
        "Ġa",
        "n"
      ],
      [
        "Ġ",
        "it"
      ],
      [
        "he",
        "r"
      ],
      [
        "ro",
        "m"
      ],
      [
        "a",
        "nd"
      ],
      [
        "u",
        "m"
      ],
      [
        "Ġ",
        "J"
      ],
      [
        "es",
        "t"
      ],
      [
        "0",
        "0"
      ],
      [
        "Ġh",
        "is"
      ],
      [
        "Ġ",
        "E"
      ],
      [
        "a",
        "g"
      ],
      [
        "a",
        "v"
      ],
      [
        "a",
        "in"
      ],
      [
        "r",
        "i"
      ],
      [
        "o",
        "d"
      ],
      [
        "Ġf",
        "rom"
      ],
      [
        "Ġ",
        "O"
      ],
      [
        "is",
        "t"
      ],
      [
        "Ġc",
        "om"
      ],
      [
        "Ġ",
        "v"
      ],
      [
        "Ġp",
        "ro"
      ],
      [
        "o",
        "p"
      ],
      [
        "il",
        "l"
      ],
      [
        "o",
        "re"
      ],
      [
        "i",
        "f"
      ],
      [
        "l",
        "d"
      ],
      [
        "u",
        "p"
      ],
      [
        "Ġ",
        "r"
      ],
      [
        "e",
        "w"
      ],
      [
        "er",
        "e"
      ],
      [
        "re",
        "s"
      ],
      [
        "ig",
        "h"
      ],
      [
        "ĠI",
        "n"
      ],
      [
        "i",
        "es"
      ],
      [
        "Ġd",
        "e"
      ],
      [
        "b",
        "er"
      ],
      [
        "ar",
        "t"
      ],
      [
        "ar",
        "d"
      ],
      [
        "or",
        "t"
      ],
      [
        "Ġs",
        "e"
      ],
      [
        "ic",
        "h"
      ],
      [
        "Ġw",
        "ere"
      ],
      [
        "at",
        "e"
      ],
      [
        "al",
        "l"
      ],
      [
        "a",
        "k"
      ],
      [
        "an",
        "t"
      ],
      [
        "o",
        "c"
      ],
      [
        "u",
        "d"
      ],
      [
        "a",
        "p"
      ],
      [
        "Ġe",
        "x"
      ],
      [
        "q",
        "u"
      ],
      [
        "on",
        "g"
      ],
      [
        "a",
        "b"
      ],
      [
        "Ġc",
        "h"
      ],
      [
        "Ġo",
        "r"
      ],
      [
        "Ġ",
        "K"
      ],
      [
        "g",
        "h"
      ],
      [
        "e",
        "ar"
      ],
      [
        "es",
        "s"
      ],
      [
        "at",
        "ed"
      ],
      [
        "Ġp",
        "l"
      ],
      [
        "Ġs",
        "h"
      ],
      [
        "it",
        "y"
      ],
      [
        "i",
        "p"
      ],
      [
        "iv",
        "e"
      ],
      [
        "am",
        "e"
      ],
      [
        "Ġ",
        "U"
      ],
      [
        "Ġ",
        "â"
      ],
      [
        "Ġh",
        "ad"
      ],
      [
        "ec",
        "t"
      ],
      [
        "ac",
        "k"
      ],
      [
        "ĠS",
        "t"
      ],
      [
        "Ġs",
        "u"
      ],
      [
        "Ġâ",
        "Ģ"
      ],
      [
        "as",
        "t"
      ],
      [
        "s",
        "e"
      ],
      [
        "re",
        "d"
      ],
      [
        "Ġ",
        "k"
      ],
      [
        "g",
        "e"
      ],
      [
        "Ġwh",
        "ich"
      ],
      [
        "ou",
        "r"
      ],
      [
        "m",
        "ent"
      ],
      [
        "Ġ",
        "le"
      ],
      [
        "u",
        "nd"
      ],
      [
        "Ġa",
        "re"
      ],
      [
        "o",
        "v"
      ],
      [
        "i",
        "an"
      ],
      [
        "i",
        "al"
      ],
      [
        "Ġn",
        "ot"
      ],
      [
        "el",
        "l"
      ],
      [
        "Ġs",
        "p"
      ],
      [
        "o",
        "st"
      ],
      [
        "Ġ",
        "y"
      ],
      [
        "igh",
        "t"
      ],
      [
        "i",
        "a"
      ],
      [
        "or",
        "d"
      ],
      [
        "u",
        "st"
      ],
      [
        "ar",
        "y"
      ],
      [
        "in",
        "e"
      ],
      [
        "t",
        "her"
      ],
      [
        "p",
        "t"
      ],
      [
        "r",
        "it"
      ],
      [
        "Ġ",
        "3"
      ],
      [
        "ou",
        "n"
      ],
      [
        "p",
        "p"
      ],
      [
        "ic",
        "al"
      ],
      [
        "ĠC",
        "h"
      ],
      [
        "av",
        "e"
      ],
      [
        "Ġ",
        "un"
      ],
      [
        "Ġ2",
        "00"
      ],
      [
        "c",
        "c"
      ],
      [
        "Ġin",
        "c"
      ],
      [
        "f",
        "ter"
      ],
      [
        "ou",
        "ld"
      ],
      [
        "Ġ",
        "V"
      ],
      [
        "Ġb",
        "ut"
      ],
      [
        "ir",
        "st"
      ],
      [
        "is",
        "h"
      ],
      [
        "ou",
        "s"
      ],
      [
        "t",
        "e"
      ],
      [
        "f",
        "f"
      ],
      [
        "ion",
        "s"
      ],
      [
        "s",
        "o"
      ],
      [
        "Ġcom",
        "p"
      ],
      [
        "Ġ2",
        "0"
      ],
      [
        "id",
        "e"
      ],
      [
        "Ġ",
        "ro"
      ],
      [
        "u",
        "re"
      ],
      [
        "Ġw",
        "he"
      ],
      [
        "u",
        "b"
      ],
      [
        "Ġa",
        "r"
      ],
      [
        "Ġcon",
        "t"
      ],
      [
        "i",
        "e"
      ],
      [
        "Ġ",
        ";"
      ],
      [
        "o",
        "g"
      ],
      [
        "ig",
        "n"
      ],
      [
        "Ġf",
        "irst"
      ],
      [
        "Ġc",
        "l"
      ],
      [
        "w",
        "o"
      ],
      [
        "Ġhe",
        "r"
      ],
      [
        "r",
        "y"
      ],
      [
        "u",
        "e"
      ],
      [
        "Ġit",
        "s"
      ],
      [
        "as",
        "s"
      ],
      [
        "Ġthe",
        "ir"
      ],
      [
        "or",
        "m"
      ],
      [
        "ĠâĢ",
        "ĵ"
      ],
      [
        "o",
        "k"
      ],
      [
        "or",
        "k"
      ],
      [
        "Ġin",
        "t"
      ],
      [
        "Ġre",
        "s"
      ],
      [
        "ĠH",
        "e"
      ],
      [
        "Ġ",
        ":"
      ],
      [
        "at",
        "er"
      ],
      [
        "Ġal",
        "so"
      ],
      [
        "Ġa",
        "b"
      ],
      [
        "on",
        "d"
      ],
      [
        "Ġa",
        "d"
      ],
      [
        "om",
        "e"
      ],
      [
        "ou",
        "t"
      ],
      [
        "r",
        "an"
      ],
      [
        "m",
        "er"
      ],
      [
        "i",
        "re"
      ],
      [
        "he",
        "d"
      ],
      [
        "r",
        "u"
      ],
      [
        "Ġ",
        "us"
      ],
      [
        "ag",
        "e"
      ],
      [
        "d",
        "u"
      ],
      [
        "Ġ",
        "4"
      ],
      [
        "im",
        "e"
      ],
      [
        "l",
        "ow"
      ],
      [
        "Ġp",
        "er"
      ],
      [
        "p",
        "er"
      ],
      [
        "Ġwh",
        "o"
      ],
      [
        "Ġ",
        "5"
      ],
      [
        "ĠT",
        "h"
      ],
      [
        "Ġon",
        "e"
      ],
      [
        "Ġh",
        "ave"
      ],
      [
        "Ġs",
        "c"
      ],
      [
        "p",
        "l"
      ],
      [
        "al",
        "ly"
      ],
      [
        "ow",
        "n"
      ],
      [
        "i",
        "le"
      ],
      [
        "Ġre",
        "c"
      ],
      [
        "Ġ1",
        "8"
      ],
      [
        "t",
        "ed"
      ],
      [
        ".",
        "@"
      ],
      [
        "Ġ@",
        ".@"
      ],
      [
        "Ġt",
        "wo"
      ],
      [
        "it",
        "ion"
      ],
      [
        "u",
        "gh"
      ],
      [
        "i",
        "z"
      ],
      [
        "re",
        "e"
      ],
      [
        "en",
        "ce"
      ],
      [
        "t",
        "s"
      ],
      [
        "ur",
        "ing"
      ],
      [
        "p",
        "ort"
      ],
      [
        "Ġbe",
        "en"
      ],
      [
        "Ġp",
        "art"
      ],
      [
        "Ġb",
        "ec"
      ],
      [
        "ic",
        "e"
      ],
      [
        "Ġh",
        "as"
      ],
      [
        "ĠA",
        "l"
      ],
      [
        "Ġa",
        "g"
      ],
      [
        "Ġa",
        "pp"
      ],
      [
        "Ġ20",
        "1"
      ],
      [
        "ou",
        "gh"
      ],
      [
        ",",
        "@"
      ],
      [
        "Ġ@",
        ",@"
      ],
      [
        "Ġ",
        "j"
      ],
      [
        "Ġ",
        "en"
      ],
      [
        "Ġd",
        "is"
      ],
      [
        "l",
        "ud"
      ],
      [
        "k",
        "e"
      ],
      [
        "Ġo",
        "ver"
      ],
      [
        "Ġs",
        "er"
      ],
      [
        "Ġth",
        "is"
      ],
      [
        "or",
        "y"
      ],
      [
        "el",
        "y"
      ],
      [
        "Ġy",
        "ear"
      ],
      [
        "ation",
        "s"
      ],
      [
        "em",
        "ber"
      ],
      [
        "re",
        "n"
      ],
      [
        "ct",
        "ion"
      ],
      [
        "ou",
        "nd"
      ],
      [
        "ac",
        "h"
      ],
      [
        "Ġof",
        "f"
      ],
      [
        "Ġa",
        "fter"
      ],
      [
        "r",
        "ic"
      ],
      [
        "Ġ",
        "up"
      ],
      [
        "l",
        "and"
      ],
      [
        "Ġpl",
        "ay"
      ],
      [
        "Ġd",
        "es"
      ],
      [
        "ac",
        "e"
      ],
      [
        "ĠI",
        "t"
      ],
      [
        "ar",
        "k"
      ],
      [
        "o",
        "ver"
      ],
      [
        "an",
        "ce"
      ],
      [
        "Ġo",
        "ut"
      ],
      [
        "Ġthe",
        "y"
      ],
      [
        "Ġm",
        "an"
      ],
      [
        "ad",
        "e"
      ],
      [
        "Ġt",
        "e"
      ],
      [
        "ac",
        "t"
      ],
      [
        "Ġo",
        "ther"
      ],
      [
        "i",
        "b"
      ],
      [
        "m",
        "an"
      ],
      [
        "ul",
        "t"
      ],
      [
        "Ġ",
        "im"
      ],
      [
        "Ġ",
        "Y"
      ],
      [
        "p",
        "h"
      ],
      [
        "res",
        "s"
      ],
      [
        "Ġinc",
        "lud"
      ],
      [
        "c",
        "ed"
      ],
      [
        "en",
        "s"
      ],
      [
        "ur",
        "n"
      ],
      [
        "w",
        "n"
      ],
      [
        "Ġw",
        "ould"
      ],
      [
        "in",
        "d"
      ],
      [
        "Ġt",
        "ime"
      ],
      [
        "on",
        "e"
      ],
      [
        "Ġp",
        "re"
      ],
      [
        "Ġint",
        "o"
      ],
      [
        "v",
        "el"
      ],
      [
        "ĠO",
        "n"
      ],
      [
        "ĠU",
        "n"
      ],
      [
        "w",
        "ard"
      ],
      [
        "w",
        "e"
      ],
      [
        "Ġw",
        "e"
      ],
      [
        "Ġh",
        "im"
      ],
      [
        "it",
        "e"
      ],
      [
        "o",
        "in"
      ],
      [
        "at",
        "es"
      ],
      [
        "Ġ",
        "6"
      ],
      [
        "Ġs",
        "he"
      ],
      [
        "l",
        "es"
      ],
      [
        "Ġe",
        "v"
      ],
      [
        "il",
        "m"
      ],
      [
        "Ġat",
        "t"
      ],
      [
        "as",
        "ed"
      ],
      [
        "Ġn",
        "e"
      ],
      [
        "it",
        "ed"
      ],
      [
        "ab",
        "le"
      ],
      [
        "e",
        "nd"
      ],
      [
        "i",
        "ed"
      ],
      [
        "as",
        "e"
      ],
      [
        "am",
        "p"
      ],
      [
        "Ġcom",
        "m"
      ],
      [
        "or",
        "s"
      ],
      [
        "Ġin",
        "ter"
      ],
      [
        "a",
        "re"
      ],
      [
        "ro",
        "ugh"
      ],
      [
        "o",
        "y"
      ],
      [
        "on",
        "s"
      ],
      [
        "oun",
        "t"
      ],
      [
        "e",
        "p"
      ],
      [
        "f",
        "orm"
      ],
      [
        "Ġal",
        "l"
      ],
      [
        "os",
        "e"
      ],
      [
        "o",
        "od"
      ],
      [
        "an",
        "g"
      ],
      [
        "Ġm",
        "ore"
      ],
      [
        "c",
        "es"
      ],
      [
        "Ġw",
        "ork"
      ],
      [
        "Ġ",
        "7"
      ],
      [
        "a",
        "il"
      ],
      [
        "ol",
        "d"
      ],
      [
        "a",
        "w"
      ],
      [
        "er",
        "ed"
      ],
      [
        "ing",
        "s"
      ],
      [
        "v",
        "e"
      ],
      [
        "il",
        "d"
      ],
      [
        "ĠA",
        "n"
      ],
      [
        "Ġn",
        "ew"
      ],
      [
        "Ġs",
        "ec"
      ],
      [
        "Ġb",
        "et"
      ],
      [
        "Ġwhe",
        "n"
      ],
      [
        "in",
        "al"
      ],
      [
        "Ġf",
        "e"
      ],
      [
        "Ġf",
        "ilm"
      ],
      [
        "ic",
        "k"
      ],
      [
        "v",
        "i"
      ],
      [
        "ent",
        "s"
      ],
      [
        "ĠS",
        "e"
      ],
      [
        "w",
        "ay"
      ],
      [
        "at",
        "t"
      ],
      [
        "f",
        "t"
      ],
      [
        "is",
        "s"
      ],
      [
        "a",
        "us"
      ],
      [
        "f",
        "er"
      ],
      [
        "Ġ",
        "8"
      ],
      [
        "g",
        "an"
      ],
      [
        "ĠM",
        "ar"
      ],
      [
        "re",
        "at"
      ],
      [
        "ri",
        "b"
      ],
      [
        "Ġcon",
        "s"
      ],
      [
        "ĠA",
        "r"
      ],
      [
        "ro",
        "und"
      ],
      [
        "ak",
        "e"
      ],
      [
        "Ġre",
        "m"
      ],
      [
        "v",
        "ed"
      ],
      [
        "Ġt",
        "r"
      ],
      [
        "Ġd",
        "ec"
      ],
      [
        "as",
        "on"
      ],
      [
        "an",
        "s"
      ],
      [
        "Ġd",
        "uring"
      ],
      [
        "Ġ",
        "und"
      ],
      [
        "or",
        "th"
      ],
      [
        "ub",
        "l"
      ],
      [
        "Ġ",
        "9"
      ],
      [
        "h",
        "ip"
      ],
      [
        "Ġag",
        "ain"
      ],
      [
        "ĠA",
        "s"
      ],
      [
        "Ġm",
        "ost"
      ],
      [
        "Ġg",
        "ame"
      ],
      [
        "ot",
        "h"
      ],
      [
        "Ġthe",
        "m"
      ],
      [
        "Ġ19",
        "9"
      ],
      [
        "Ġon",
        "ly"
      ],
      [
        "Ġp",
        "r"
      ],
      [
        "at",
        "h"
      ],
      [
        "we",
        "en"
      ],
      [
        "i",
        "x"
      ],
      [
        "Ġe",
        "ar"
      ],
      [
        "ol",
        "low"
      ],
      [
        "Ġth",
        "an"
      ],
      [
        "o",
        "b"
      ],
      [
        "ro",
        "p"
      ],
      [
        "Ġs",
        "up"
      ],
      [
        "ation",
        "al"
      ],
      [
        "f",
        "ore"
      ],
      [
        "ĠN",
        "ew"
      ],
      [
        "Ġab",
        "out"
      ],
      [
        "Ġpro",
        "du"
      ],
      [
        "u",
        "g"
      ],
      [
        "Ġc",
        "ent"
      ],
      [
        "ter",
        "n"
      ],
      [
        "Ġk",
        "n"
      ],
      [
        "Ġre",
        "t"
      ],
      [
        "e",
        "y"
      ],
      [
        "Ġch",
        "ar"
      ],
      [
        "Ġs",
        "ong"
      ],
      [
        "Ġc",
        "an"
      ],
      [
        "ou",
        "th"
      ],
      [
        "Ġbet",
        "ween"
      ],
      [
        "Ġl",
        "ater"
      ],
      [
        "or",
        "n"
      ],
      [
        "Ġre",
        "le"
      ],
      [
        "Ġund",
        "er"
      ],
      [
        "ic",
        "t"
      ],
      [
        "Ġth",
        "ree"
      ],
      [
        "h",
        "n"
      ],
      [
        "t",
        "on"
      ],
      [
        "Ġc",
        "ol"
      ],
      [
        "r",
        "on"
      ],
      [
        "Ġa",
        "ct"
      ],
      [
        "Ġ",
        "00"
      ],
      [
        "al",
        "s"
      ],
      [
        "Ġ",
        "qu"
      ],
      [
        "Ġth",
        "rough"
      ],
      [
        "ĠE",
        "n"
      ],
      [
        "or",
        "ld"
      ],
      [
        "o",
        "ok"
      ],
      [
        "Ġn",
        "um"
      ],
      [
        "Ġs",
        "o"
      ],
      [
        "Ġm",
        "e"
      ],
      [
        "Ġa",
        "cc"
      ],
      [
        "Ġre",
        "l"
      ],
      [
        "Ġwh",
        "ile"
      ],
      [
        "Ġ",
        "ra"
      ],
      [
        "Ġe",
        "nd"
      ],
      [
        "mer",
        "ic"
      ],
      [
        "ĠL",
        "e"
      ],
      [
        "le",
        "ct"
      ],
      [
        "ĠA",
        "meric"
      ],
      [
        "Ġf",
        "l"
      ],
      [
        "ter",
        "s"
      ],
      [
        "oc",
        "k"
      ],
      [
        "Ġp",
        "os"
      ],
      [
        "r",
        "al"
      ],
      [
        "Ġsu",
        "b"
      ],
      [
        "e",
        "ver"
      ],
      [
        "ul",
        "ar"
      ],
      [
        "Ġas",
        "s"
      ],
      [
        "at",
        "ing"
      ],
      [
        "Ġwhe",
        "re"
      ],
      [
        "Ġ",
        "ver"
      ],
      [
        "Ġd",
        "ay"
      ],
      [
        "c",
        "k"
      ],
      [
        "Ġre",
        "g"
      ],
      [
        "Ġsec",
        "ond"
      ],
      [
        "en",
        "er"
      ],
      [
        "a",
        "id"
      ],
      [
        "Ġb",
        "u"
      ],
      [
        "ĠC",
        "om"
      ],
      [
        "Ġm",
        "ade"
      ],
      [
        "am",
        "es"
      ],
      [
        "is",
        "ion"
      ],
      [
        "iv",
        "ed"
      ],
      [
        "ĠR",
        "e"
      ],
      [
        "Ġp",
        "e"
      ],
      [
        "he",
        "s"
      ],
      [
        "Ġrec",
        "ord"
      ],
      [
        "s",
        "on"
      ],
      [
        "Ġde",
        "f"
      ],
      [
        "b",
        "um"
      ],
      [
        "Ġf",
        "our"
      ],
      [
        "Ġg",
        "ro"
      ],
      [
        "Ġf",
        "ollow"
      ],
      [
        "Ġse",
        "ason"
      ],
      [
        "Ġ00",
        "0"
      ],
      [
        "Ġe",
        "p"
      ],
      [
        "Ġfor",
        "m"
      ],
      [
        "Ġs",
        "ome"
      ],
      [
        "Ġsu",
        "ch"
      ],
      [
        "Ġa",
        "m"
      ],
      [
        "o",
        "ol"
      ],
      [
        "is",
        "hed"
      ],
      [
        "Ġm",
        "ov"
      ],
      [
        "Ġbe",
        "fore"
      ],
      [
        "Ġt",
        "ra"
      ],
      [
        "Ġm",
        "us"
      ],
      [
        "ĠS",
        "p"
      ],
      [
        "Ġthe",
        "re"
      ],
      [
        "Ġw",
        "rit"
      ],
      [
        "he",
        "n"
      ],
      [
        "ic",
        "s"
      ],
      [
        "ĠJ",
        "o"
      ],
      [
        "i",
        "o"
      ],
      [
        "Ġsp",
        "ec"
      ],
      [
        "i",
        "el"
      ],
      [
        "Ġ1",
        "0"
      ],
      [
        "i",
        "ke"
      ],
      [
        "Ġs",
        "y"
      ],
      [
        "Ġyear",
        "s"
      ],
      [
        "Ġte",
        "am"
      ],
      [
        "ĠA",
        "t"
      ],
      [
        "od",
        "e"
      ],
      [
        "u",
        "al"
      ],
      [
        "ĠTh",
        "is"
      ],
      [
        "id",
        "ent"
      ],
      [
        "Ġ",
        "/"
      ],
      [
        "Ġl",
        "ar"
      ],
      [
        "Ġal",
        "bum"
      ],
      [
        "ĠS",
        "h"
      ],
      [
        "Ġin",
        "d"
      ],
      [
        "ro",
        "s"
      ],
      [
        "il",
        "y"
      ],
      [
        "ow",
        "ever"
      ],
      [
        "Ġ",
        "ent"
      ],
      [
        "n",
        "ing"
      ],
      [
        "Ġus",
        "ed"
      ],
      [
        "Ġc",
        "all"
      ],
      [
        "an",
        "k"
      ],
      [
        "Ġs",
        "ur"
      ],
      [
        "if",
        "ic"
      ],
      [
        "Ġa",
        "c"
      ],
      [
        "Ġh",
        "igh"
      ],
      [
        "ur",
        "y"
      ],
      [
        "Ġp",
        "ubl"
      ],
      [
        "Ġbe",
        "ing"
      ],
      [
        "Ġep",
        "is"
      ],
      [
        "ain",
        "ed"
      ],
      [
        "Ġthe",
        "n"
      ],
      [
        "l",
        "ed"
      ],
      [
        "t",
        "en"
      ],
      [
        "vel",
        "op"
      ],
      [
        "a",
        "j"
      ],
      [
        "Ġd",
        "o"
      ],
      [
        "Ġl",
        "oc"
      ],
      [
        "Ġex",
        "p"
      ],
      [
        "if",
        "e"
      ],
      [
        "r",
        "is"
      ],
      [
        "Ġ1",
        "7"
      ],
      [
        "Ġagain",
        "st"
      ],
      [
        "Ġin",
        "v"
      ],
      [
        "Ġ",
        "0"
      ],
      [
        "Ġb",
        "l"
      ],
      [
        "Ġp",
        "res"
      ],
      [
        "Ġsh",
        "ow"
      ],
      [
        "ot",
        "her"
      ],
      [
        "Ġnum",
        "ber"
      ],
      [
        "ĠA",
        "fter"
      ],
      [
        "Ġchar",
        "ac"
      ],
      [
        "i",
        "ous"
      ],
      [
        "Ġse",
        "ver"
      ],
      [
        "Ġad",
        "d"
      ],
      [
        "Ġc",
        "o"
      ],
      [
        "Ġs",
        "et"
      ],
      [
        "e",
        "k"
      ],
      [
        "in",
        "ce"
      ],
      [
        "j",
        "ect"
      ],
      [
        "ar",
        "s"
      ],
      [
        "Ġbec",
        "ame"
      ],
      [
        "Ġre",
        "ce"
      ],
      [
        "ĠB",
        "rit"
      ],
      [
        "aus",
        "e"
      ],
      [
        "Ġle",
        "ad"
      ],
      [
        "Ġper",
        "form"
      ],
      [
        "Ġn",
        "o"
      ],
      [
        "Ġinclud",
        "ing"
      ],
      [
        "Ġs",
        "ing"
      ],
      [
        "at",
        "her"
      ],
      [
        "in",
        "s"
      ],
      [
        "ĠâĢ",
        "Ķ"
      ],
      [
        "in",
        "es"
      ],
      [
        "Ġf",
        "ound"
      ],
      [
        "ĠUn",
        "ited"
      ],
      [
        "ran",
        "s"
      ],
      [
        "a",
        "ir"
      ],
      [
        "Ġw",
        "ell"
      ],
      [
        "al",
        "e"
      ],
      [
        "Ġm",
        "on"
      ],
      [
        "Ġre",
        "p"
      ],
      [
        "ĠS",
        "c"
      ],
      [
        "Ġp",
        "ol"
      ],
      [
        "Ġb",
        "ack"
      ],
      [
        "Ġb",
        "oth"
      ],
      [
        "i",
        "er"
      ],
      [
        "Ġc",
        "ap"
      ],
      [
        "Ġ19",
        "8"
      ],
      [
        "Ġser",
        "ies"
      ],
      [
        "Ġ1",
        "5"
      ],
      [
        "Ġ1",
        "2"
      ],
      [
        "o",
        "ber"
      ],
      [
        "r",
        "am"
      ],
      [
        "ĠC",
        "on"
      ],
      [
        "i",
        "k"
      ],
      [
        "ow",
        "er"
      ],
      [
        "Ġsh",
        "ip"
      ],
      [
        "em",
        "ent"
      ],
      [
        "it",
        "s"
      ],
      [
        "er",
        "t"
      ],
      [
        "i",
        "red"
      ],
      [
        "u",
        "res"
      ],
      [
        "le",
        "y"
      ],
      [
        "ĠW",
        "h"
      ],
      [
        "ĠS",
        "he"
      ],
      [
        "iv",
        "ers"
      ],
      [
        "Ġm",
        "ain"
      ],
      [
        "p",
        "en"
      ],
      [
        "Ġ19",
        "4"
      ],
      [
        "Ġm",
        "in"
      ],
      [
        "i",
        "et"
      ],
      [
        "d",
        "er"
      ],
      [
        "over",
        "n"
      ],
      [
        "Ġd",
        "id"
      ],
      [
        "v",
        "en"
      ],
      [
        "Ġg",
        "o"
      ],
      [
        "Ġc",
        "re"
      ],
      [
        "el",
        "f"
      ],
      [
        "ol",
        "og"
      ],
      [
        "Ġim",
        "p"
      ],
      [
        "Ġde",
        "velop"
      ],
      [
        "Ġm",
        "et"
      ],
      [
        "a",
        "z"
      ],
      [
        "it",
        "ies"
      ],
      [
        "ĠEn",
        "g"
      ],
      [
        "Ġl",
        "ong"
      ],
      [
        "iv",
        "er"
      ],
      [
        "an",
        "y"
      ],
      [
        "l",
        "l"
      ],
      [
        "is",
        "ed"
      ],
      [
        "er",
        "m"
      ],
      [
        "t",
        "ing"
      ],
      [
        "u",
        "ch"
      ],
      [
        "a",
        "red"
      ],
      [
        "an",
        "n"
      ],
      [
        "an",
        "e"
      ],
      [
        "ir",
        "d"
      ],
      [
        "Ġe",
        "m"
      ],
      [
        "ĠJo",
        "hn"
      ],
      [
        "Ġm",
        "ill"
      ],
      [
        "f",
        "ul"
      ],
      [
        "Ġa",
        "ir"
      ],
      [
        "Ġm",
        "at"
      ],
      [
        "Ġepis",
        "ode"
      ],
      [
        "te",
        "nd"
      ],
      [
        "ire",
        "ct"
      ],
      [
        "Ġs",
        "aid"
      ],
      [
        "Ġst",
        "ud"
      ],
      [
        "Ġman",
        "y"
      ],
      [
        "ut",
        "e"
      ],
      [
        "Ġb",
        "ro"
      ],
      [
        "as",
        "h"
      ],
      [
        "at",
        "ive"
      ],
      [
        "Ġde",
        "p"
      ],
      [
        "Ġc",
        "ar"
      ],
      [
        "Ġ1",
        "6"
      ],
      [
        "Ġc",
        "ould"
      ],
      [
        "Ġor",
        "ig"
      ],
      [
        "Ġw",
        "ar"
      ],
      [
        "Ġcont",
        "in"
      ],
      [
        "ĠC",
        "l"
      ],
      [
        "Ġsever",
        "al"
      ],
      [
        "ĠAmeric",
        "an"
      ],
      [
        "th",
        "ough"
      ],
      [
        "Ġd",
        "if"
      ],
      [
        "ĠI",
        "nd"
      ],
      [
        "iel",
        "d"
      ],
      [
        "a",
        "h"
      ],
      [
        "Ġin",
        "st"
      ],
      [
        "Ġp",
        "op"
      ],
      [
        "ou",
        "se"
      ],
      [
        "is",
        "e"
      ],
      [
        "em",
        "b"
      ],
      [
        "Ġkn",
        "own"
      ],
      [
        "Ġ19",
        "7"
      ],
      [
        "t",
        "y"
      ],
      [
        "u",
        "ally"
      ],
      [
        "Ġ19",
        "6"
      ],
      [
        "ĠA",
        "ust"
      ],
      [
        "Ġ1",
        "1"
      ],
      [
        "Ġcon",
        "c"
      ],
      [
        "t",
        "il"
      ],
      [
        "i",
        "am"
      ],
      [
        "ĠW",
        "ar"
      ],
      [
        "vi",
        "ew"
      ],
      [
        "ers",
        "on"
      ],
      [
        "Ġo",
        "b"
      ],
      [
        "u",
        "ed"
      ],
      [
        "ĠG",
        "er"
      ],
      [
        "Ġs",
        "m"
      ],
      [
        "Ġret",
        "urn"
      ],
      [
        "Ġan",
        "y"
      ],
      [
        "Ġbe",
        "gan"
      ],
      [
        "Ġ",
        "Z"
      ],
      [
        "er",
        "n"
      ],
      [
        "Ġcomp",
        "le"
      ],
      [
        "Ġdes",
        "ign"
      ],
      [
        "ĠD",
        "e"
      ],
      [
        "Ġdes",
        "c"
      ],
      [
        "Ġs",
        "ign"
      ],
      [
        "op",
        "le"
      ],
      [
        "ch",
        "ool"
      ],
      [
        "ros",
        "s"
      ],
      [
        "m",
        "y"
      ],
      [
        "is",
        "m"
      ],
      [
        "o",
        "ot"
      ],
      [
        "Ġ",
        "est"
      ],
      [
        "Ġt",
        "rans"
      ],
      [
        "cc",
        "ess"
      ],
      [
        "Ġpro",
        "v"
      ],
      [
        "ak",
        "ing"
      ],
      [
        "Ġfe",
        "at"
      ],
      [
        "ĠB",
        "l"
      ],
      [
        "id",
        "ed"
      ],
      [
        "Ġin",
        "f"
      ],
      [
        "an",
        "c"
      ],
      [
        "Ġr",
        "un"
      ],
      [
        "Ġear",
        "ly"
      ],
      [
        "Ġar",
        "t"
      ],
      [
        "iz",
        "ed"
      ],
      [
        "Ġd",
        "ist"
      ],
      [
        "Ġmus",
        "ic"
      ],
      [
        "Ġo",
        "wn"
      ],
      [
        "Ġn",
        "ear"
      ],
      [
        "Ġrele",
        "ased"
      ],
      [
        "Ġun",
        "til"
      ],
      [
        "Ġcall",
        "ed"
      ],
      [
        "Ġe",
        "ff"
      ],
      [
        "ĠC",
        "ol"
      ],
      [
        "im",
        "es"
      ],
      [
        "ĠU",
        "S"
      ],
      [
        "r",
        "id"
      ],
      [
        "ist",
        "s"
      ],
      [
        "Ġres",
        "p"
      ],
      [
        "un",
        "e"
      ],
      [
        "Ġb",
        "el"
      ],
      [
        "en",
        "n"
      ],
      [
        "Ġp",
        "ass"
      ],
      [
        "st",
        "em"
      ],
      [
        "u",
        "red"
      ],
      [
        "Ġf",
        "in"
      ],
      [
        "ial",
        "ly"
      ],
      [
        "ĠM",
        "ay"
      ],
      [
        "Ġp",
        "h"
      ],
      [
        "ut",
        "ion"
      ],
      [
        "Ġd",
        "own"
      ],
      [
        "Ġdis",
        "c"
      ],
      [
        "ment",
        "s"
      ],
      [
        "Ġc",
        "rit"
      ],
      [
        "os",
        "ed"
      ],
      [
        "x",
        "t"
      ],
      [
        "Ġd",
        "irect"
      ],
      [
        "Ġg",
        "ener"
      ],
      [
        "Ġal",
        "ong"
      ],
      [
        "i",
        "um"
      ],
      [
        "Ġin",
        "s"
      ],
      [
        "Ġmill",
        "ion"
      ],
      [
        "g",
        "er"
      ],
      [
        "ul",
        "l"
      ],
      [
        "ĠBrit",
        "ish"
      ],
      [
        "a",
        "x"
      ],
      [
        "Ġgro",
        "up"
      ],
      [
        "Ġoff",
        "ic"
      ],
      [
        "v",
        "ent"
      ],
      [
        "ĠGer",
        "man"
      ],
      [
        "Ġ1",
        "3"
      ],
      [
        "Ġf",
        "am"
      ],
      [
        "e",
        "b"
      ],
      [
        "Ġthe",
        "se"
      ],
      [
        "aj",
        "or"
      ],
      [
        "Ġm",
        "od"
      ],
      [
        "Ġm",
        "ay"
      ],
      [
        "Ġ",
        "$"
      ],
      [
        "ce",
        "pt"
      ],
      [
        "ĠA",
        "d"
      ],
      [
        "Ġo",
        "pen"
      ],
      [
        "an",
        "ge"
      ],
      [
        "Ġm",
        "il"
      ],
      [
        "ĠB",
        "e"
      ],
      [
        "Ġp",
        "oin"
      ],
      [
        "u",
        "c"
      ],
      [
        "g",
        "g"
      ],
      [
        "Ġl",
        "and"
      ],
      [
        "Ġs",
        "im"
      ],
      [
        "Ġhis",
        "t"
      ],
      [
        "ĠA",
        "ug"
      ],
      [
        "Ġg",
        "overn"
      ],
      [
        "Ã",
        "©"
      ],
      [
        "ĠSe",
        "pt"
      ],
      [
        "Ġsu",
        "ccess"
      ],
      [
        "ĠSept",
        "ember"
      ],
      [
        "ĠAug",
        "ust"
      ],
      [
        "et",
        "s"
      ],
      [
        "ĠA",
        "p"
      ],
      [
        "ĠW",
        "orld"
      ],
      [
        "ĠSt",
        "ates"
      ],
      [
        "ib",
        "le"
      ],
      [
        "in",
        "k"
      ],
      [
        "er",
        "v"
      ],
      [
        "Ġg",
        "u"
      ],
      [
        "Ġo",
        "per"
      ],
      [
        "Ġc",
        "ount"
      ],
      [
        "Ġatt",
        "ack"
      ],
      [
        "Ġus",
        "e"
      ],
      [
        "Ġs",
        "ame"
      ],
      [
        "y",
        "s"
      ],
      [
        "ward",
        "s"
      ],
      [
        "Ġdesc",
        "rib"
      ],
      [
        "Ġpe",
        "ople"
      ],
      [
        "ĠI",
        "s"
      ],
      [
        "ĠF",
        "or"
      ],
      [
        "ac",
        "ed"
      ],
      [
        "Ġcharac",
        "ter"
      ],
      [
        "y",
        "p"
      ],
      [
        "am",
        "ed"
      ],
      [
        "Ġbec",
        "ause"
      ],
      [
        "ĠAl",
        "l"
      ],
      [
        "el",
        "s"
      ],
      [
        "Ġv",
        "i"
      ],
      [
        "Ġ1",
        "4"
      ],
      [
        "Ġl",
        "ike"
      ],
      [
        "Ġser",
        "v"
      ],
      [
        "ĠJ",
        "u"
      ],
      [
        "ĠF",
        "ran"
      ],
      [
        "g",
        "ed"
      ],
      [
        "Ġa",
        "round"
      ],
      [
        "Ġst",
        "art"
      ],
      [
        "Ġth",
        "ough"
      ],
      [
        "Ġ",
        "ed"
      ],
      [
        "Ġ19",
        "5"
      ],
      [
        "ĠP",
        "l"
      ],
      [
        "Ġ",
        "Q"
      ],
      [
        "n",
        "er"
      ],
      [
        "Ġw",
        "in"
      ],
      [
        "Ġk",
        "m"
      ],
      [
        "Ġcon",
        "st"
      ],
      [
        "u",
        "es"
      ],
      [
        "r",
        "ing"
      ],
      [
        "Ġto",
        "ok"
      ],
      [
        "Ġo",
        "cc"
      ],
      [
        "ru",
        "ct"
      ],
      [
        "av",
        "ing"
      ],
      [
        "ĠAust",
        "ral"
      ],
      [
        "Ġb",
        "att"
      ],
      [
        "ĠO",
        "ct"
      ],
      [
        "Ġan",
        "n"
      ],
      [
        "Ġsup",
        "port"
      ],
      [
        "ov",
        "e"
      ],
      [
        "ĠN",
        "ov"
      ],
      [
        "Ġfollow",
        "ing"
      ],
      [
        "Ġs",
        "ix"
      ],
      [
        "Ġn",
        "orth"
      ],
      [
        "Ġe",
        "le"
      ],
      [
        "ĠC",
        "ar"
      ],
      [
        "Ġ19",
        "3"
      ],
      [
        "ĠH",
        "owever"
      ],
      [
        "Ġsy",
        "stem"
      ],
      [
        "Ġapp",
        "ear"
      ],
      [
        "us",
        "s"
      ],
      [
        "Ġf",
        "inal"
      ],
      [
        "Ġrece",
        "ived"
      ],
      [
        "Ġcl",
        "ass"
      ],
      [
        "in",
        "ed"
      ],
      [
        "ĠOct",
        "ober"
      ],
      [
        "Ġhe",
        "ad"
      ],
      [
        "iv",
        "es"
      ],
      [
        "Ġp",
        "rom"
      ],
      [
        "Ġcons",
        "id"
      ],
      [
        "en",
        "e"
      ],
      [
        "ant",
        "s"
      ],
      [
        "r",
        "ad"
      ],
      [
        "l",
        "ing"
      ],
      [
        "il",
        "ity"
      ],
      [
        "ical",
        "ly"
      ],
      [
        "ĠD",
        "ec"
      ],
      [
        "ĠP",
        "ro"
      ],
      [
        "Ġ19",
        "1"
      ],
      [
        "Ġe",
        "ver"
      ],
      [
        "Ġst",
        "ate"
      ],
      [
        "Ġbu",
        "ild"
      ],
      [
        "re",
        "t"
      ],
      [
        "Ġe",
        "ach"
      ],
      [
        "an",
        "u"
      ],
      [
        "Ġex",
        "t"
      ],
      [
        "Ġf",
        "ive"
      ],
      [
        "r",
        "ist"
      ],
      [
        "Ġa",
        "ut"
      ],
      [
        "ro",
        "l"
      ],
      [
        "ĠY",
        "ork"
      ],
      [
        "Ġcent",
        "ury"
      ],
      [
        "in",
        "a"
      ],
      [
        "Ġv",
        "ar"
      ],
      [
        "Ġb",
        "o"
      ],
      [
        "Ġw",
        "ill"
      ],
      [
        "Ġare",
        "a"
      ],
      [
        "ĠThe",
        "y"
      ],
      [
        "at",
        "ely"
      ],
      [
        "Ġsm",
        "all"
      ],
      [
        "g",
        "et"
      ],
      [
        "os",
        "s"
      ],
      [
        "Ġpart",
        "ic"
      ],
      [
        "Ġl",
        "ife"
      ],
      [
        "ĠN",
        "orth"
      ],
      [
        "iv",
        "ing"
      ],
      [
        "r",
        "il"
      ],
      [
        "Ġre",
        "port"
      ],
      [
        "Ġ",
        "]"
      ],
      [
        "ĠM",
        "e"
      ],
      [
        "Ġ",
        "["
      ],
      [
        "t",
        "le"
      ],
      [
        "ore",
        "d"
      ],
      [
        "ĠB",
        "y"
      ],
      [
        "ĠJ",
        "une"
      ],
      [
        "ian",
        "s"
      ],
      [
        "ord",
        "ing"
      ],
      [
        "Ġc",
        "ity"
      ],
      [
        "g",
        "in"
      ],
      [
        "Ġm",
        "ar"
      ],
      [
        "p",
        "ed"
      ],
      [
        "ĠK",
        "ing"
      ],
      [
        "Ġm",
        "ajor"
      ],
      [
        "Ġwe",
        "ek"
      ],
      [
        "Ġpubl",
        "ic"
      ],
      [
        "ĠJu",
        "ly"
      ],
      [
        "Ġ",
        "%"
      ],
      [
        "iss",
        "ion"
      ],
      [
        "Ġcon",
        "f"
      ],
      [
        "ĠH",
        "ar"
      ],
      [
        "Ġb",
        "and"
      ],
      [
        "ect",
        "ion"
      ],
      [
        "Ġre",
        "f"
      ],
      [
        "m",
        "ed"
      ],
      [
        "ĠNov",
        "ember"
      ],
      [
        "in",
        "c"
      ],
      [
        "ur",
        "ch"
      ],
      [
        "Ġre",
        "st"
      ],
      [
        "ĠCom",
        "m"
      ],
      [
        "ĠW",
        "ill"
      ],
      [
        "Ġw",
        "orld"
      ],
      [
        "ĠP",
        "h"
      ],
      [
        "Ġm",
        "ed"
      ],
      [
        "Ġs",
        "ince"
      ],
      [
        "es",
        "p"
      ],
      [
        "Ġsing",
        "le"
      ],
      [
        "ra",
        "ft"
      ],
      [
        "ra",
        "ph"
      ],
      [
        "p",
        "or"
      ],
      [
        "ĠAp",
        "ril"
      ],
      [
        "b",
        "le"
      ],
      [
        "ĠM",
        "c"
      ],
      [
        "ain",
        "s"
      ],
      [
        "ri",
        "ed"
      ],
      [
        "l",
        "ish"
      ],
      [
        "Ġd",
        "et"
      ],
      [
        "ĠMar",
        "ch"
      ],
      [
        "om",
        "et"
      ],
      [
        "Ġj",
        "ust"
      ],
      [
        "Ġl",
        "ast"
      ],
      [
        "ect",
        "ed"
      ],
      [
        "ur",
        "al"
      ],
      [
        ".",
        "."
      ],
      [
        "ion",
        "al"
      ],
      [
        "he",
        "st"
      ],
      [
        "ĠE",
        "d"
      ],
      [
        "a",
        "im"
      ],
      [
        "Ġt",
        "urn"
      ],
      [
        "iv",
        "ely"
      ],
      [
        "Ġhe",
        "l"
      ],
      [
        "il",
        "t"
      ],
      [
        "Ġal",
        "low"
      ],
      [
        "Ġp",
        "o"
      ],
      [
        "ĠC",
        "an"
      ],
      [
        "Ġ3",
        "0"
      ],
      [
        "c",
        "l"
      ],
      [
        "i",
        "ent"
      ],
      [
        "vi",
        "ous"
      ],
      [
        "ĠG",
        "e"
      ],
      [
        "Ġle",
        "ft"
      ],
      [
        "Ġlar",
        "ge"
      ],
      [
        "Ġl",
        "ine"
      ],
      [
        "at",
        "s"
      ],
      [
        "Ġdif",
        "fer"
      ],
      [
        "al",
        "es"
      ],
      [
        "ĠS",
        "outh"
      ],
      [
        "Ġc",
        "are"
      ],
      [
        "Ġs",
        "outh"
      ],
      [
        "Ġad",
        "v"
      ],
      [
        "if",
        "ied"
      ],
      [
        "ĠD",
        "uring"
      ],
      [
        "Ġ.",
        ".."
      ],
      [
        "Ġd",
        "r"
      ],
      [
        "Ġst",
        "r"
      ],
      [
        "Ġb",
        "ook"
      ],
      [
        "Ġver",
        "s"
      ],
      [
        "em",
        "pt"
      ],
      [
        "Ġs",
        "chool"
      ],
      [
        "Ġs",
        "l"
      ],
      [
        "ag",
        "ue"
      ],
      [
        "ĠDec",
        "ember"
      ],
      [
        "Ġth",
        "ird"
      ],
      [
        "av",
        "y"
      ],
      [
        "Ġinc",
        "re"
      ],
      [
        "Ġ2",
        "5"
      ],
      [
        "Ġmon",
        "th"
      ],
      [
        "Ġd",
        "ue"
      ],
      [
        "Ġapp",
        "ro"
      ],
      [
        "Ġplay",
        "ed"
      ],
      [
        "Ġm",
        "uch"
      ],
      [
        "Ġev",
        "ent"
      ],
      [
        "ro",
        "w"
      ],
      [
        "ĠP",
        "r"
      ],
      [
        "Ġ",
        "if"
      ],
      [
        "ro",
        "te"
      ],
      [
        "Ġan",
        "other"
      ],
      [
        "ĠJ",
        "anu"
      ],
      [
        "Ġ19",
        "2"
      ],
      [
        "ĠJanu",
        "ary"
      ],
      [
        "Ġinclud",
        "ed"
      ],
      [
        "Ġwh",
        "at"
      ],
      [
        "Ġpl",
        "ace"
      ],
      [
        "Ġb",
        "ased"
      ],
      [
        "Ġsh",
        "ort"
      ],
      [
        "n",
        "e"
      ],
      [
        "ĠI",
        "I"
      ],
      [
        "on",
        "y"
      ],
      [
        "Ġex",
        "pl"
      ],
      [
        "Ġgovern",
        "ment"
      ],
      [
        "Ġp",
        "erson"
      ],
      [
        "b",
        "all"
      ],
      [
        "Ġw",
        "rote"
      ],
      [
        "ĠW",
        "hen"
      ],
      [
        "Ġtr",
        "ack"
      ],
      [
        "ap",
        "an"
      ],
      [
        "Ġc",
        "amp"
      ],
      [
        "Ġt",
        "it"
      ],
      [
        "Ġo",
        "ld"
      ],
      [
        "ĠE",
        "u"
      ],
      [
        "Ġb",
        "re"
      ],
      [
        "al",
        "f"
      ],
      [
        "Ġn",
        "ame"
      ],
      [
        "Ġde",
        "ath"
      ],
      [
        "Ġp",
        "ort"
      ],
      [
        "Ġe",
        "lect"
      ],
      [
        "ent",
        "ly"
      ],
      [
        "p",
        "le"
      ],
      [
        "ren",
        "t"
      ],
      [
        "ĠJ",
        "apan"
      ],
      [
        "i",
        "ence"
      ],
      [
        "Ġen",
        "g"
      ],
      [
        "Ġw",
        "on"
      ],
      [
        "b",
        "y"
      ],
      [
        "ĠO",
        "r"
      ],
      [
        "Ġch",
        "ild"
      ],
      [
        "Ġpro",
        "t"
      ],
      [
        "Ġl",
        "it"
      ],
      [
        "Ġk",
        "ill"
      ],
      [
        "Ġpro",
        "g"
      ],
      [
        "o",
        "ad"
      ],
      [
        "Ġst",
        "ory"
      ],
      [
        "ide",
        "o"
      ],
      [
        "ag",
        "es"
      ],
      [
        "Ġp",
        "ower"
      ],
      [
        "ĠB",
        "ro"
      ],
      [
        "Ġre",
        "view"
      ],
      [
        "ĠT",
        "e"
      ],
      [
        "od",
        "y"
      ],
      [
        "Ġv",
        "is"
      ],
      [
        "it",
        "al"
      ],
      [
        "Ġh",
        "ome"
      ],
      [
        "ot",
        "t"
      ],
      [
        "Ġl",
        "ed"
      ],
      [
        "p",
        "s"
      ],
      [
        "Ġdescrib",
        "ed"
      ],
      [
        "en",
        "g"
      ],
      [
        "Ġre",
        "qu"
      ],
      [
        "om",
        "an"
      ],
      [
        "Ġpre",
        "vious"
      ],
      [
        "Ġfam",
        "ily"
      ],
      [
        "Ġg",
        "un"
      ],
      [
        "ra",
        "nd"
      ],
      [
        "t",
        "ain"
      ],
      [
        "Ġw",
        "ay"
      ],
      [
        "y",
        "l"
      ],
      [
        "Ġn",
        "amed"
      ],
      [
        "Ġr",
        "ight"
      ],
      [
        "Ġn",
        "ow"
      ],
      [
        "ĠM",
        "us"
      ],
      [
        "Ġd",
        "em"
      ],
      [
        "ur",
        "ther"
      ],
      [
        "i",
        "od"
      ],
      [
        "iv",
        "en"
      ],
      [
        "Ġm",
        "en"
      ],
      [
        "il",
        "ar"
      ],
      [
        "Ġev",
        "en"
      ],
      [
        "Ġm",
        "ake"
      ],
      [
        "emb",
        "ers"
      ],
      [
        "Ġor",
        "gan"
      ],
      [
        "ĠG",
        "u"
      ],
      [
        "re",
        "en"
      ],
      [
        "is",
        "ter"
      ],
      [
        "on",
        "t"
      ],
      [
        "c",
        "y"
      ],
      [
        "ivers",
        "ity"
      ],
      [
        "om",
        "in"
      ],
      [
        "Ġatt",
        "empt"
      ],
      [
        "Ġb",
        "est"
      ],
      [
        "it",
        "ions"
      ],
      [
        "Ġ1",
        "00"
      ],
      [
        "Ġc",
        "our"
      ],
      [
        "Ġre",
        "pl"
      ],
      [
        "iv",
        "ision"
      ],
      [
        "Ġo",
        "pp"
      ],
      [
        "Ġle",
        "g"
      ],
      [
        "ren",
        "ch"
      ],
      [
        "Ġg",
        "ames"
      ],
      [
        "i",
        "or"
      ],
      [
        "ac",
        "hed"
      ],
      [
        "Ġt",
        "erm"
      ],
      [
        "ĠA",
        "nd"
      ],
      [
        "Ġcomm",
        "and"
      ],
      [
        "iv",
        "al"
      ],
      [
        "Ġh",
        "and"
      ],
      [
        "ĠF",
        "l"
      ],
      [
        "Ġpos",
        "s"
      ],
      [
        "m",
        "p"
      ],
      [
        "Ġbel",
        "ie"
      ],
      [
        "Ġd",
        "am"
      ],
      [
        "Ġver",
        "y"
      ],
      [
        "o",
        "x"
      ],
      [
        "ĠH",
        "is"
      ],
      [
        "Ġth",
        "ose"
      ],
      [
        "ĠF",
        "eb"
      ],
      [
        "ĠEu",
        "rop"
      ],
      [
        "Ġp",
        "ar"
      ],
      [
        "ĠFeb",
        "ru"
      ],
      [
        "ĠFebru",
        "ary"
      ],
      [
        "s",
        "h"
      ],
      [
        "Ġis",
        "s"
      ],
      [
        "Ġst",
        "ill"
      ],
      [
        "Ġto",
        "p"
      ],
      [
        "Ġne",
        "xt"
      ],
      [
        "Ġspec",
        "ies"
      ],
      [
        "ĠCh",
        "rist"
      ],
      [
        "Ġeff",
        "ect"
      ],
      [
        "ri",
        "end"
      ],
      [
        "Ġvi",
        "ew"
      ],
      [
        "c",
        "hed"
      ],
      [
        "ĠThe",
        "re"
      ],
      [
        "ĠN",
        "ational"
      ],
      [
        "oc",
        "i"
      ],
      [
        "Ġorig",
        "inal"
      ],
      [
        "ak",
        "en"
      ],
      [
        "ĠW",
        "e"
      ],
      [
        "at",
        "ure"
      ],
      [
        "en",
        "ces"
      ],
      [
        "Ġsp",
        "e"
      ],
      [
        "l",
        "u"
      ],
      [
        "Ġw",
        "ater"
      ],
      [
        "n",
        "ess"
      ],
      [
        "Ġadd",
        "ition"
      ],
      [
        "Ġj",
        "oin"
      ],
      [
        "ĠB",
        "ar"
      ],
      [
        "ĠEurop",
        "e"
      ],
      [
        "Ġl",
        "ist"
      ],
      [
        "a",
        "u"
      ],
      [
        "Ġper",
        "iod"
      ],
      [
        "Ġwith",
        "in"
      ],
      [
        "al",
        "k"
      ],
      [
        "Ġm",
        "embers"
      ],
      [
        "Ġm",
        "ark"
      ],
      [
        "et",
        "er"
      ],
      [
        "Ġde",
        "b"
      ],
      [
        "Ġhe",
        "ld"
      ],
      [
        "Ġbu",
        "ilt"
      ],
      [
        "ĠF",
        "rench"
      ],
      [
        "Ġex",
        "per"
      ],
      [
        "h",
        "or"
      ],
      [
        "a",
        "f"
      ],
      [
        "ĠA",
        "m"
      ],
      [
        "Ġ201",
        "0"
      ],
      [
        "Ġrele",
        "ase"
      ],
      [
        "ĠP",
        "ar"
      ],
      [
        "Ġl",
        "ate"
      ],
      [
        "Ġal",
        "though"
      ],
      [
        "Ġfor",
        "mer"
      ],
      [
        "re",
        "w"
      ],
      [
        "Ġmat",
        "ch"
      ],
      [
        "Ġg",
        "reat"
      ],
      [
        "a",
        "ugh"
      ],
      [
        "rid",
        "ge"
      ],
      [
        "n",
        "ey"
      ],
      [
        "Ġc",
        "ur"
      ],
      [
        "Ġd",
        "est"
      ],
      [
        "Ġs",
        "old"
      ],
      [
        "ut",
        "ed"
      ],
      [
        "tend",
        "ed"
      ],
      [
        "Ġv",
        "ideo"
      ],
      [
        "Ġ2",
        "1"
      ],
      [
        "ard",
        "s"
      ],
      [
        "Ġc",
        "aus"
      ],
      [
        "ĠW",
        "est"
      ],
      [
        "l",
        "ine"
      ],
      [
        "Ġst",
        "orm"
      ],
      [
        "Ġc",
        "over"
      ],
      [
        "Ġ",
        "X"
      ],
      [
        "v",
        "es"
      ],
      [
        "ec",
        "h"
      ],
      [
        "Ġin",
        "it"
      ],
      [
        "Ġro",
        "le"
      ],
      [
        "rop",
        "ical"
      ],
      [
        "Ġt",
        "ri"
      ],
      [
        "ĠWill",
        "iam"
      ],
      [
        "s",
        "elf"
      ],
      [
        "Ġc",
        "ame"
      ],
      [
        "Ġest",
        "ab"
      ],
      [
        "he",
        "l"
      ],
      [
        "ĠH",
        "er"
      ],
      [
        "Ġday",
        "s"
      ],
      [
        "an",
        "ces"
      ],
      [
        "Ġres",
        "ult"
      ],
      [
        "Ġm",
        "id"
      ],
      [
        "Ġpres",
        "ent"
      ],
      [
        "Ġ",
        "Â"
      ],
      [
        "n",
        "a"
      ],
      [
        "le",
        "v"
      ],
      [
        "Ġcont",
        "rol"
      ],
      [
        "ag",
        "ed"
      ],
      [
        "pt",
        "ion"
      ],
      [
        "o",
        "on"
      ],
      [
        "ul",
        "ation"
      ],
      [
        "Ġst",
        "and"
      ],
      [
        "Ġre",
        "al"
      ],
      [
        "Ġpol",
        "it"
      ],
      [
        "Ġh",
        "owever"
      ],
      [
        "ĠM",
        "in"
      ],
      [
        "it",
        "ary"
      ],
      [
        "as",
        "ter"
      ],
      [
        "h",
        "am"
      ],
      [
        "Ġ200",
        "8"
      ],
      [
        "Ġpro",
        "p"
      ],
      [
        "le",
        "t"
      ],
      [
        "en",
        "se"
      ],
      [
        "Ġ200",
        "9"
      ],
      [
        "ĠM",
        "an"
      ],
      [
        "at",
        "ic"
      ],
      [
        "id",
        "es"
      ],
      [
        "Ġf",
        "ew"
      ],
      [
        "Ġto",
        "wn"
      ],
      [
        "Ġ2",
        "4"
      ],
      [
        "Ġw",
        "ind"
      ],
      [
        "ĠGe",
        "or"
      ],
      [
        "om",
        "b"
      ],
      [
        "Ġy",
        "ou"
      ],
      [
        "og",
        "raph"
      ],
      [
        "Ġt",
        "w"
      ],
      [
        "Ġs",
        "ide"
      ],
      [
        "Ġs",
        "k"
      ],
      [
        "Ġcontin",
        "ued"
      ],
      [
        "Ġof",
        "ten"
      ],
      [
        "Ġe",
        "qu"
      ],
      [
        "Ġp",
        "ost"
      ],
      [
        "ĠE",
        "ar"
      ],
      [
        "ay",
        "s"
      ],
      [
        "Ġloc",
        "al"
      ],
      [
        "Ġ201",
        "1"
      ],
      [
        "el",
        "t"
      ],
      [
        "ĠCh",
        "ar"
      ],
      [
        "at",
        "or"
      ],
      [
        "Ġam",
        "ong"
      ],
      [
        "ĠA",
        "ir"
      ],
      [
        "Ġsim",
        "ilar"
      ],
      [
        "ru",
        "ction"
      ],
      [
        "e",
        "ad"
      ],
      [
        "c",
        "hes"
      ],
      [
        "ĠM",
        "ich"
      ],
      [
        "r",
        "act"
      ],
      [
        "Ġh",
        "um"
      ],
      [
        "Ġa",
        "v"
      ],
      [
        "Ġcl",
        "aim"
      ],
      [
        "ĠN",
        "o"
      ],
      [
        "es",
        "tern"
      ],
      [
        "om",
        "en"
      ],
      [
        "Ġ",
        "&"
      ],
      [
        "un",
        "g"
      ],
      [
        "ĠEng",
        "land"
      ],
      [
        "re",
        "et"
      ],
      [
        "re",
        "ad"
      ],
      [
        "ak",
        "es"
      ],
      [
        "Ġdiffer",
        "ent"
      ],
      [
        "s",
        "ide"
      ],
      [
        "es",
        "e"
      ],
      [
        "op",
        "s"
      ],
      [
        "Ġm",
        "y"
      ],
      [
        "Ġd",
        "el"
      ],
      [
        "l",
        "er"
      ],
      [
        "Ġbe",
        "h"
      ],
      [
        "ĠR",
        "ec"
      ],
      [
        "olog",
        "y"
      ],
      [
        "p",
        "ar"
      ],
      [
        "Ġt",
        "yp"
      ],
      [
        "Ġ2",
        "2"
      ],
      [
        "Ġf",
        "urther"
      ],
      [
        "Ġs",
        "ent"
      ],
      [
        "es",
        "c"
      ],
      [
        "ĠD",
        "av"
      ],
      [
        "ot",
        "s"
      ],
      [
        "est",
        "ed"
      ],
      [
        "Ġle",
        "vel"
      ],
      [
        "ur",
        "s"
      ],
      [
        "Ġf",
        "re"
      ],
      [
        "Ġconsid",
        "ered"
      ],
      [
        "Ġt",
        "ake"
      ],
      [
        "Ġl",
        "aw"
      ],
      [
        "er",
        "y"
      ],
      [
        "ĠE",
        "l"
      ],
      [
        "Ġto",
        "t"
      ],
      [
        "Ġ200",
        "7"
      ],
      [
        "g",
        "y"
      ],
      [
        "Ġcare",
        "er"
      ],
      [
        "ĠOn",
        "e"
      ],
      [
        "ron",
        "t"
      ],
      [
        "Ġprodu",
        "ction"
      ],
      [
        "ar",
        "m"
      ],
      [
        "m",
        "e"
      ],
      [
        "Ġh",
        "alf"
      ],
      [
        "ic",
        "es"
      ],
      [
        "ĠP",
        "ark"
      ],
      [
        "ĠC",
        "o"
      ],
      [
        "Ġan",
        "t"
      ],
      [
        "ĠC",
        "ity"
      ],
      [
        "Ġh",
        "aving"
      ],
      [
        "amp",
        "ions"
      ],
      [
        "b",
        "o"
      ],
      [
        "ĠA",
        "cc"
      ],
      [
        "ĠEng",
        "lish"
      ],
      [
        "Ġm",
        "ag"
      ],
      [
        "Ġro",
        "ad"
      ],
      [
        "Ġe",
        "ast"
      ],
      [
        "Ġmov",
        "ed"
      ],
      [
        "Ġd",
        "ra"
      ],
      [
        "er",
        "ing"
      ],
      [
        "Ġever",
        "y"
      ],
      [
        "Ġw",
        "est"
      ],
      [
        "Ġwith",
        "out"
      ],
      [
        "ĠAl",
        "though"
      ],
      [
        "ro",
        "du"
      ],
      [
        "Ġc",
        "r"
      ],
      [
        "ĠC",
        "ent"
      ],
      [
        "Ġapp",
        "e"
      ],
      [
        "Ġpl",
        "an"
      ],
      [
        "Ġplay",
        "er"
      ],
      [
        "Ġ201",
        "2"
      ],
      [
        "in",
        "ing"
      ],
      [
        "Ġpos",
        "ition"
      ],
      [
        "Ġc",
        "or"
      ],
      [
        "Ġbec",
        "ome"
      ],
      [
        "Ġar",
        "r"
      ],
      [
        "Ġhist",
        "ory"
      ],
      [
        "Ġvers",
        "ion"
      ],
      [
        "ver",
        "s"
      ],
      [
        "Ġt",
        "ro"
      ],
      [
        "ĠC",
        "al"
      ],
      [
        "f",
        "ord"
      ],
      [
        "ĠAn",
        "g"
      ],
      [
        "ond",
        "on"
      ],
      [
        "on",
        "es"
      ],
      [
        "Ġc",
        "ast"
      ],
      [
        "ĠC",
        "ount"
      ],
      [
        "Ġ",
        "el"
      ],
      [
        "Ġinf",
        "lu"
      ],
      [
        "iz",
        "e"
      ],
      [
        "Ġar",
        "m"
      ],
      [
        "Ġ2",
        "3"
      ],
      [
        "ĠL",
        "ondon"
      ],
      [
        "Ġh",
        "ouse"
      ],
      [
        "y",
        "le"
      ],
      [
        "Ġs",
        "ound"
      ],
      [
        "r",
        "ig"
      ],
      [
        "Ġf",
        "ore"
      ],
      [
        "Ġcomm",
        "un"
      ],
      [
        "res",
        "ent"
      ],
      [
        "ir",
        "c"
      ],
      [
        "ap",
        "p"
      ],
      [
        "ĠB",
        "att"
      ],
      [
        "Ġg",
        "r"
      ],
      [
        "Ġcl",
        "ub"
      ],
      [
        "Ġsu",
        "gg"
      ],
      [
        "ro",
        "y"
      ],
      [
        "a",
        "ul"
      ],
      [
        "at",
        "ter"
      ],
      [
        "Ġstr",
        "ong"
      ],
      [
        "Ġinv",
        "ol"
      ],
      [
        "a",
        "i"
      ],
      [
        "Ġwrit",
        "ten"
      ],
      [
        "Ġ19",
        "0"
      ],
      [
        "ain",
        "ing"
      ],
      [
        "ĠW",
        "ith"
      ],
      [
        "Ġb",
        "as"
      ],
      [
        "Ġst",
        "at"
      ],
      [
        "Ġl",
        "ess"
      ],
      [
        "oun",
        "g"
      ],
      [
        "ut",
        "es"
      ],
      [
        "Ġann",
        "oun"
      ],
      [
        "re",
        "st"
      ],
      [
        "Ġf",
        "oot"
      ],
      [
        "ĠR",
        "iver"
      ],
      [
        "i",
        "qu"
      ],
      [
        "al",
        "d"
      ],
      [
        "Ġor",
        "der"
      ],
      [
        "Ġre",
        "fer"
      ],
      [
        "iet",
        "y"
      ],
      [
        "im",
        "ent"
      ],
      [
        "g",
        "es"
      ],
      [
        "Ġpro",
        "f"
      ],
      [
        "c",
        "raft"
      ],
      [
        "ĠCan",
        "ad"
      ],
      [
        "a",
        "e"
      ],
      [
        "Ġa",
        "ff"
      ],
      [
        "Ġpoin",
        "t"
      ],
      [
        "se",
        "qu"
      ],
      [
        "Ġt",
        "em"
      ],
      [
        "Ġg",
        "iven"
      ],
      [
        "Ġr",
        "ad"
      ],
      [
        "Ġl",
        "ow"
      ],
      [
        "Ġtr",
        "ad"
      ],
      [
        "Ġh",
        "ig"
      ],
      [
        "Ġw",
        "ant"
      ],
      [
        "ĠG",
        "ener"
      ],
      [
        "ĠUn",
        "iversity"
      ],
      [
        "il",
        "le"
      ],
      [
        "Ġk",
        "e"
      ],
      [
        "Ġg",
        "ave"
      ],
      [
        "Ġp",
        "at"
      ],
      [
        "u",
        "ck"
      ],
      [
        "is",
        "c"
      ],
      [
        "Ġim",
        "port"
      ],
      [
        "ĠP",
        "ol"
      ],
      [
        "Ġne",
        "ver"
      ],
      [
        "a",
        "ff"
      ],
      [
        "ĠWh",
        "ile"
      ],
      [
        "Ġch",
        "ang"
      ],
      [
        "Ġdef",
        "e"
      ],
      [
        "or",
        "ies"
      ],
      [
        "Ġs",
        "oc"
      ],
      [
        "Ġreturn",
        "ed"
      ],
      [
        "r",
        "ation"
      ],
      [
        "ĠA",
        "b"
      ],
      [
        "Ġv",
        "ict"
      ],
      [
        "Ġtot",
        "al"
      ],
      [
        "Ġf",
        "act"
      ],
      [
        "ĠH",
        "igh"
      ],
      [
        "Ġg",
        "ood"
      ],
      [
        "ent",
        "ion"
      ],
      [
        "ĠT",
        "r"
      ],
      [
        "Ġcomp",
        "any"
      ],
      [
        "Ġf",
        "ire"
      ],
      [
        "s",
        "p"
      ],
      [
        "ail",
        "ed"
      ],
      [
        "Ġcount",
        "ry"
      ],
      [
        "Ġw",
        "ent"
      ],
      [
        "is",
        "on"
      ],
      [
        "Ġcom",
        "b"
      ],
      [
        "c",
        "ess"
      ],
      [
        "Ġf",
        "riend"
      ],
      [
        "our",
        "s"
      ],
      [
        "ric",
        "k"
      ],
      [
        "ĠE",
        "x"
      ],
      [
        "Ġcap",
        "t"
      ],
      [
        "Ġpubl",
        "ished"
      ],
      [
        "a",
        "un"
      ],
      [
        "Ġprodu",
        "ced"
      ],
      [
        "lev",
        "ision"
      ],
      [
        "Ġf",
        "ind"
      ],
      [
        "ay",
        "ing"
      ],
      [
        "c",
        "on"
      ],
      [
        "Ġreport",
        "ed"
      ],
      [
        "Ġorig",
        "in"
      ],
      [
        "ĠS",
        "m"
      ],
      [
        "Ġ200",
        "6"
      ],
      [
        "a",
        "ign"
      ],
      [
        "Ġl",
        "ost"
      ],
      [
        "Ġst",
        "ated"
      ],
      [
        "Ġcomm",
        "on"
      ],
      [
        "Ġprog",
        "ram"
      ],
      [
        "ing",
        "ton"
      ],
      [
        "Ġl",
        "ight"
      ],
      [
        "y",
        "n"
      ],
      [
        "Ġpartic",
        "ular"
      ],
      [
        "ap",
        "e"
      ],
      [
        "Ġor",
        "d"
      ],
      [
        "ec",
        "hn"
      ],
      [
        "Ġad",
        "m"
      ],
      [
        "Ġinclud",
        "e"
      ],
      [
        "est",
        "s"
      ],
      [
        "ĠAcc",
        "ording"
      ],
      [
        "Ġlar",
        "g"
      ],
      [
        "ab",
        "ly"
      ],
      [
        "ur",
        "ric"
      ],
      [
        "Ġcomp",
        "et"
      ],
      [
        "Ġ",
        "er"
      ],
      [
        "us",
        "ed"
      ],
      [
        "Ġrecord",
        "ed"
      ],
      [
        "ie",
        "f"
      ],
      [
        "Ġbuild",
        "ing"
      ],
      [
        "Ġp",
        "ress"
      ],
      [
        "ĠSt",
        "e"
      ],
      [
        "Ġne",
        "ed"
      ],
      [
        "ĠN",
        "e"
      ],
      [
        "Ġb",
        "us"
      ],
      [
        "Ġpro",
        "ject"
      ],
      [
        "h",
        "ing"
      ],
      [
        "Ġfor",
        "ces"
      ],
      [
        "um",
        "ent"
      ],
      [
        "Ġn",
        "ort"
      ],
      [
        "Ġ2",
        "7"
      ],
      [
        "Ġship",
        "s"
      ],
      [
        "Ġsh",
        "ould"
      ],
      [
        "Ġus",
        "ing"
      ],
      [
        "Ġe",
        "ight"
      ],
      [
        "Ġ5",
        "0"
      ],
      [
        "Ġ2",
        "8"
      ],
      [
        "Ġperform",
        "ance"
      ],
      [
        "in",
        "ess"
      ],
      [
        "ĠS",
        "w"
      ],
      [
        "Ġserv",
        "ice"
      ],
      [
        "b",
        "s"
      ],
      [
        "Ġpop",
        "ular"
      ],
      [
        "Ġ",
        "ide"
      ],
      [
        "pl",
        "oy"
      ],
      [
        "ĠThe",
        "se"
      ],
      [
        "Ġt",
        "imes"
      ],
      [
        "os",
        "p"
      ],
      [
        "Ġm",
        "aking"
      ],
      [
        "Ġt",
        "en"
      ],
      [
        "Ġair",
        "craft"
      ],
      [
        "Ġhim",
        "self"
      ],
      [
        "oy",
        "al"
      ],
      [
        "Ġf",
        "un"
      ],
      [
        "Ġaut",
        "hor"
      ],
      [
        "Ġ201",
        "3"
      ],
      [
        "Ġf",
        "ather"
      ],
      [
        "at",
        "ch"
      ],
      [
        "Ġmil",
        "itary"
      ],
      [
        "ĠAustral",
        "ia"
      ],
      [
        "ĠS",
        "ec"
      ],
      [
        "Ġan",
        "im"
      ],
      [
        "le",
        "ar"
      ],
      [
        "Ġbatt",
        "le"
      ],
      [
        "ampions",
        "hip"
      ],
      [
        "ĠJ",
        "ack"
      ],
      [
        "n",
        "ed"
      ],
      [
        "ĠAs",
        "s"
      ],
      [
        "Ġs",
        "it"
      ],
      [
        "Ġl",
        "im"
      ],
      [
        "Ġsong",
        "s"
      ],
      [
        "Ġs",
        "omet"
      ],
      [
        "Ġre",
        "ad"
      ],
      [
        "ĠA",
        "f"
      ],
      [
        "ou",
        "ther"
      ],
      [
        "Ġcrit",
        "ic"
      ],
      [
        "ens",
        "ive"
      ],
      [
        "it",
        "her"
      ],
      [
        "ord",
        "s"
      ],
      [
        "Ġdevelop",
        "ment"
      ],
      [
        "Ġs",
        "w"
      ],
      [
        "Ġh",
        "ow"
      ],
      [
        "Ġg",
        "l"
      ],
      [
        "Ġ4",
        "0"
      ],
      [
        "ĠGener",
        "al"
      ],
      [
        "al",
        "th"
      ],
      [
        "et",
        "h"
      ],
      [
        "Ġs",
        "ol"
      ],
      [
        "it",
        "ive"
      ],
      [
        "ed",
        "er"
      ],
      [
        "as",
        "es"
      ],
      [
        "qu",
        "ad"
      ],
      [
        "Ġ2",
        "6"
      ],
      [
        "ĠSt",
        "ate"
      ],
      [
        "ol",
        "l"
      ],
      [
        "ĠC",
        "or"
      ],
      [
        "outher",
        "n"
      ],
      [
        "ĠJ",
        "ames"
      ],
      [
        "Ġc",
        "ross"
      ],
      [
        "c",
        "er"
      ],
      [
        "Ġ18",
        "9"
      ],
      [
        "am",
        "b"
      ],
      [
        "Ġrep",
        "resent"
      ],
      [
        "ĠS",
        "y"
      ],
      [
        "Ġg",
        "round"
      ],
      [
        "Ġdest",
        "roy"
      ],
      [
        "ac",
        "y"
      ],
      [
        "Ġst",
        "ar"
      ],
      [
        "Ġf",
        "t"
      ],
      [
        "Ġrem",
        "ained"
      ],
      [
        "as",
        "tern"
      ],
      [
        "Ġst",
        "e"
      ],
      [
        "k",
        "s"
      ],
      [
        "ri",
        "e"
      ],
      [
        "Ġcharac",
        "ters"
      ],
      [
        "ĠAr",
        "my"
      ],
      [
        "Ġn",
        "ational"
      ],
      [
        "ĠP",
        "res"
      ],
      [
        "Ġg",
        "et"
      ],
      [
        "ri",
        "es"
      ],
      [
        "w",
        "ork"
      ],
      [
        "Ġmonth",
        "s"
      ],
      [
        "Ġsu",
        "ff"
      ],
      [
        "Ġg",
        "en"
      ],
      [
        "ĠB",
        "o"
      ],
      [
        "Ġd",
        "ied"
      ],
      [
        "a",
        "ur"
      ],
      [
        "Ġt",
        "er"
      ],
      [
        "ĠG",
        "l"
      ],
      [
        "ĠCom",
        "p"
      ],
      [
        "ubl",
        "ic"
      ],
      [
        "Ġdevelop",
        "ed"
      ],
      [
        "Ġtit",
        "le"
      ],
      [
        "d",
        "om"
      ],
      [
        "Ġs",
        "um"
      ],
      [
        "Ġch",
        "art"
      ],
      [
        "f",
        "ic"
      ],
      [
        "Ġcamp",
        "aign"
      ],
      [
        "re",
        "am"
      ],
      [
        "urric",
        "ane"
      ],
      [
        "Ġfor",
        "ce"
      ],
      [
        "ĠLe",
        "ague"
      ],
      [
        "Ġchild",
        "ren"
      ],
      [
        "Ġint",
        "rodu"
      ],
      [
        "land",
        "s"
      ],
      [
        "en",
        "cy"
      ],
      [
        "Ġp",
        "ra"
      ],
      [
        "Ġto",
        "ur"
      ],
      [
        "Ġprom",
        "ot"
      ],
      [
        "it",
        "ted"
      ],
      [
        "ist",
        "ed"
      ],
      [
        "a",
        "el"
      ],
      [
        "Ġs",
        "on"
      ],
      [
        "Ġsign",
        "ific"
      ],
      [
        "Ġre",
        "d"
      ],
      [
        "Ġac",
        "ross"
      ],
      [
        "Ġa",
        "way"
      ],
      [
        "ress",
        "ion"
      ],
      [
        "her",
        "n"
      ],
      [
        "Ġrel",
        "ations"
      ],
      [
        "Ġob",
        "s"
      ],
      [
        "Ġhist",
        "or"
      ],
      [
        "Ġf",
        "ield"
      ],
      [
        "Ġoffic",
        "ial"
      ],
      [
        "ĠD",
        "ivision"
      ],
      [
        "Ġf",
        "av"
      ],
      [
        "Ġf",
        "elt"
      ],
      [
        "o",
        "le"
      ],
      [
        "le",
        "ge"
      ],
      [
        "ĠAmeric",
        "a"
      ],
      [
        "Ġnot",
        "ed"
      ],
      [
        "Ġf",
        "ac"
      ],
      [
        "ĠS",
        "im"
      ],
      [
        "Ġn",
        "ight"
      ],
      [
        "al",
        "t"
      ],
      [
        "Ġannoun",
        "ced"
      ],
      [
        "m",
        "ost"
      ],
      [
        "Ġre",
        "ached"
      ],
      [
        "ĠR",
        "uss"
      ],
      [
        "Ġinter",
        "n"
      ],
      [
        "ĠS",
        "up"
      ],
      [
        "Ġcre",
        "ated"
      ],
      [
        "ĠCount",
        "y"
      ],
      [
        "Ġare",
        "as"
      ],
      [
        "c",
        "om"
      ],
      [
        "ĠR",
        "ep"
      ],
      [
        "ĠM",
        "on"
      ],
      [
        "Ġte",
        "levision"
      ],
      [
        "Ġc",
        "oun"
      ],
      [
        "Ġ200",
        "5"
      ],
      [
        "ĠR",
        "oad"
      ],
      [
        "ĠJapan",
        "ese"
      ],
      [
        "Ġst",
        "ation"
      ],
      [
        "he",
        "m"
      ],
      [
        "ress",
        "ed"
      ],
      [
        "Ġsuccess",
        "ful"
      ],
      [
        "ĠM",
        "ad"
      ],
      [
        "Ġro",
        "ck"
      ],
      [
        "im",
        "ately"
      ],
      [
        "Ġv",
        "al"
      ],
      [
        "ĠG",
        "r"
      ],
      [
        "ĠRe",
        "g"
      ],
      [
        "is",
        "ing"
      ],
      [
        "Ġvar",
        "ious"
      ],
      [
        "ĠâĢ",
        "Ļ"
      ],
      [
        "Ġb",
        "ar"
      ],
      [
        "ĠSt",
        "reet"
      ],
      [
        "Ġpolit",
        "ical"
      ],
      [
        "Ġse",
        "en"
      ],
      [
        "Ġfollow",
        "ed"
      ],
      [
        "Ġa",
        "ver"
      ],
      [
        "f",
        "ield"
      ],
      [
        "i",
        "ber"
      ],
      [
        "it",
        "ing"
      ],
      [
        "Ġto",
        "o"
      ],
      [
        "Ġ2",
        "9"
      ],
      [
        "Ġr",
        "ank"
      ],
      [
        "et",
        "t"
      ],
      [
        "ĠE",
        "ast"
      ],
      [
        "op",
        "e"
      ],
      [
        "Ġperform",
        "ed"
      ],
      [
        "c",
        "ast"
      ],
      [
        "ĠR",
        "ober"
      ],
      [
        "Ġc",
        "ult"
      ],
      [
        "iz",
        "ation"
      ],
      [
        "Ġser",
        "ved"
      ],
      [
        "Ġ201",
        "4"
      ],
      [
        "Ġplay",
        "ers"
      ],
      [
        "Ġf",
        "ront"
      ],
      [
        "re",
        "g"
      ],
      [
        "Ġre",
        "v"
      ],
      [
        "al",
        "ity"
      ],
      [
        "ĠGeor",
        "ge"
      ],
      [
        "Ġcon",
        "d"
      ],
      [
        "Ġf",
        "ull"
      ],
      [
        "Ġpr",
        "im"
      ],
      [
        "Ġdec",
        "l"
      ],
      [
        "Ġbl",
        "ack"
      ],
      [
        "in",
        "ation"
      ],
      [
        "ell",
        "ing"
      ],
      [
        "Ġbe",
        "gin"
      ],
      [
        "du",
        "ct"
      ],
      [
        "Ġf",
        "le"
      ],
      [
        "Ġp",
        "ut"
      ],
      [
        "ĠS",
        "er"
      ],
      [
        "Ġc",
        "irc"
      ],
      [
        "Ġcon",
        "v"
      ],
      [
        "Ġear",
        "l"
      ],
      [
        "ĠP",
        "er"
      ],
      [
        "ol",
        "ution"
      ],
      [
        "ĠT",
        "o"
      ],
      [
        "ĠH",
        "en"
      ],
      [
        "Ġc",
        "ost"
      ],
      [
        "ab",
        "or"
      ],
      [
        "id",
        "ence"
      ],
      [
        "Ġse",
        "e"
      ],
      [
        "Ġpro",
        "cess"
      ],
      [
        "Ġn",
        "on"
      ],
      [
        "Ġd",
        "iv"
      ],
      [
        "Ġst",
        "yle"
      ],
      [
        "y",
        "ing"
      ],
      [
        "Ġl",
        "ook"
      ],
      [
        "ĠPh",
        "il"
      ],
      [
        "Ġse",
        "ven"
      ],
      [
        "Ġv",
        "ol"
      ],
      [
        "Ġa",
        "ud"
      ],
      [
        "Ġkill",
        "ed"
      ],
      [
        "ĠE",
        "m"
      ],
      [
        "Ġc",
        "y"
      ],
      [
        "Ġhel",
        "p"
      ],
      [
        "ric",
        "t"
      ],
      [
        "Ġle",
        "t"
      ],
      [
        "l",
        "ished"
      ],
      [
        "pl",
        "ay"
      ],
      [
        "Ġthrough",
        "out"
      ],
      [
        "ĠB",
        "ill"
      ],
      [
        "Ġt",
        "aken"
      ],
      [
        "Ġt",
        "ropical"
      ],
      [
        "Ġab",
        "le"
      ],
      [
        "an",
        "a"
      ],
      [
        "Ġf",
        "ight"
      ],
      [
        "Ġdisc",
        "over"
      ],
      [
        "Ġag",
        "re"
      ],
      [
        "ec",
        "ut"
      ],
      [
        "ert",
        "ain"
      ],
      [
        "Ġlit",
        "tle"
      ],
      [
        "Ġw",
        "id"
      ],
      [
        "Ġbec",
        "om"
      ],
      [
        "Ġf",
        "em"
      ],
      [
        "Ġa",
        "ge"
      ],
      [
        "ur",
        "g"
      ],
      [
        "Ġsignific",
        "ant"
      ],
      [
        "ĠS",
        "ch"
      ],
      [
        "Ġh",
        "it"
      ],
      [
        "Ġme",
        "et"
      ],
      [
        "Ġ",
        "ident"
      ],
      [
        "ĠTh",
        "om"
      ],
      [
        "way",
        "s"
      ],
      [
        "ir",
        "l"
      ],
      [
        "Ġt",
        "echn"
      ],
      [
        "Ġspec",
        "ial"
      ],
      [
        "Ġc",
        "op"
      ],
      [
        "o",
        "ice"
      ],
      [
        "Ġwrit",
        "ing"
      ],
      [
        "Ġst",
        "ruct"
      ],
      [
        "ĠDav",
        "id"
      ],
      [
        "Ġthough",
        "t"
      ],
      [
        "Ġestab",
        "lished"
      ],
      [
        "ĠP",
        "art"
      ],
      [
        "Ġbro",
        "ad"
      ],
      [
        "ĠA",
        "ct"
      ],
      [
        "en",
        "ced"
      ],
      [
        "ĠM",
        "or"
      ],
      [
        "Ġm",
        "m"
      ],
      [
        "Ġappe",
        "ared"
      ],
      [
        "Ġdo",
        "es"
      ],
      [
        "Ġcol",
        "l"
      ],
      [
        "Ġent",
        "ire"
      ],
      [
        "ĠAustral",
        "ian"
      ],
      [
        "av",
        "al"
      ],
      [
        "c",
        "il"
      ],
      [
        "ep",
        "end"
      ],
      [
        "Ġ",
        "!"
      ],
      [
        "Ġy",
        "oung"
      ],
      [
        "Ġco",
        "ast"
      ],
      [
        "Ġpoin",
        "ts"
      ],
      [
        "Ġmil",
        "es"
      ],
      [
        "i",
        "us"
      ],
      [
        "Ġb",
        "ody"
      ],
      [
        "Ġa",
        "ward"
      ],
      [
        "l",
        "ess"
      ],
      [
        "Ġimp",
        "ro"
      ],
      [
        "ĠR",
        "ich"
      ],
      [
        "Ġro",
        "ute"
      ],
      [
        "Ġm",
        "ember"
      ],
      [
        "od",
        "es"
      ],
      [
        "ough",
        "t"
      ],
      [
        "ĠM",
        "ed"
      ],
      [
        "g",
        "round"
      ],
      [
        "ri",
        "pt"
      ],
      [
        "Ġw",
        "omen"
      ],
      [
        "Ġact",
        "iv"
      ],
      [
        "Ġr",
        "ange"
      ],
      [
        "st",
        "er"
      ],
      [
        "as",
        "k"
      ],
      [
        "ĠP",
        "e"
      ],
      [
        "iv",
        "il"
      ],
      [
        "ĠY",
        "ou"
      ],
      [
        "Ġcaus",
        "ed"
      ],
      [
        "Ġstart",
        "ed"
      ],
      [
        "Ġdec",
        "ided"
      ],
      [
        "i",
        "ers"
      ],
      [
        "ble",
        "m"
      ],
      [
        "Ġfeat",
        "ures"
      ],
      [
        "lect",
        "ed"
      ],
      [
        "d",
        "ay"
      ],
      [
        "ĠAf",
        "ric"
      ],
      [
        "Ġgener",
        "al"
      ],
      [
        "Ġp",
        "ain"
      ],
      [
        "ĠQ",
        "u"
      ],
      [
        "Ġevent",
        "ually"
      ],
      [
        "at",
        "ors"
      ],
      [
        "ir",
        "on"
      ],
      [
        "i",
        "ec"
      ],
      [
        "in",
        "t"
      ],
      [
        "um",
        "b"
      ],
      [
        "m",
        "en"
      ],
      [
        "con",
        "om"
      ],
      [
        "op",
        "h"
      ],
      [
        "og",
        "n"
      ],
      [
        "u",
        "k"
      ],
      [
        "d",
        "en"
      ],
      [
        "ĠR",
        "oyal"
      ],
      [
        "Ġr",
        "ace"
      ],
      [
        "Ġar",
        "ch"
      ],
      [
        "Ġv",
        "ot"
      ],
      [
        "he",
        "re"
      ],
      [
        "it",
        "ar"
      ],
      [
        "Ġgro",
        "w"
      ],
      [
        "Ġman",
        "ag"
      ],
      [
        "Ġfe",
        "et"
      ],
      [
        "pp",
        "ed"
      ],
      [
        "ris",
        "on"
      ],
      [
        "Ġto",
        "get"
      ],
      [
        "Ġtoget",
        "her"
      ],
      [
        "us",
        "h"
      ],
      [
        "Ġadd",
        "ed"
      ],
      [
        "ĠH",
        "ist"
      ],
      [
        "ĠH",
        "ouse"
      ],
      [
        "Ġt",
        "re"
      ],
      [
        "Ġh",
        "old"
      ],
      [
        "ber",
        "t"
      ],
      [
        "Ġc",
        "ut"
      ],
      [
        "iv",
        "id"
      ],
      [
        "Ġ18",
        "8"
      ],
      [
        "Ġwh",
        "ite"
      ],
      [
        "Ġon",
        "ce"
      ],
      [
        "Ġn",
        "ov"
      ],
      [
        "amp",
        "le"
      ],
      [
        "am",
        "ent"
      ],
      [
        "Ġform",
        "ed"
      ],
      [
        "Ġar",
        "g"
      ],
      [
        "Ġloc",
        "ated"
      ],
      [
        "Ġst",
        "ri"
      ],
      [
        "ree",
        "k"
      ],
      [
        "ur",
        "b"
      ],
      [
        "Ġcon",
        "n"
      ],
      [
        "Ġmod",
        "ern"
      ],
      [
        "o",
        "ff"
      ],
      [
        "ĠBl",
        "ack"
      ],
      [
        "Ġen",
        "c"
      ],
      [
        "Ġinst",
        "ead"
      ],
      [
        "d",
        "le"
      ],
      [
        "ĠP",
        "ort"
      ],
      [
        "he",
        "ad"
      ],
      [
        "rough",
        "t"
      ],
      [
        "ac",
        "es"
      ],
      [
        "Ġro",
        "und"
      ],
      [
        "Ġ",
        "esc"
      ],
      [
        "Ġ3",
        "1"
      ],
      [
        "Ġb",
        "all"
      ],
      [
        "ar",
        "a"
      ],
      [
        "Ġm",
        "ix"
      ],
      [
        "em",
        "y"
      ],
      [
        "ĠIn",
        "tern"
      ],
      [
        "Ġimport",
        "ant"
      ],
      [
        "e",
        "e"
      ],
      [
        "Ġp",
        "ri"
      ],
      [
        "c",
        "ing"
      ],
      [
        "Ġcre",
        "w"
      ],
      [
        "Ġs",
        "aw"
      ],
      [
        "Ġa",
        "ction"
      ],
      [
        "Ġcomple",
        "ted"
      ],
      [
        "Ġre",
        "du"
      ],
      [
        "ĠIt",
        "al"
      ],
      [
        "Ġplay",
        "ing"
      ],
      [
        "ect",
        "s"
      ],
      [
        "ĠInd",
        "ian"
      ],
      [
        "id",
        "s"
      ],
      [
        "one",
        "y"
      ],
      [
        "c",
        "ent"
      ],
      [
        "r",
        "ated"
      ],
      [
        "ĠO",
        "ther"
      ],
      [
        "ell",
        "s"
      ],
      [
        "Ġ200",
        "4"
      ],
      [
        "at",
        "a"
      ],
      [
        "Ġins",
        "p"
      ],
      [
        "Ġb",
        "ase"
      ],
      [
        "Ġm",
        "ater"
      ],
      [
        "Ġpop",
        "ulation"
      ],
      [
        "ĠM",
        "y"
      ],
      [
        "Ġm",
        "ot"
      ],
      [
        "Ġsur",
        "v"
      ],
      [
        "ĠMich",
        "ael"
      ],
      [
        "Ġv",
        "oc"
      ],
      [
        "Ġas",
        "k"
      ],
      [
        "Ġr",
        "ather"
      ],
      [
        "Ġocc",
        "ur"
      ],
      [
        "Ġopen",
        "ed"
      ],
      [
        "Ġst",
        "age"
      ],
      [
        "Ġbeh",
        "ind"
      ],
      [
        "Ġother",
        "s"
      ],
      [
        "Ġ18",
        "6"
      ],
      [
        "r",
        "ay"
      ],
      [
        "Ġf",
        "all"
      ],
      [
        "Ġre",
        "n"
      ],
      [
        "Ġgun",
        "s"
      ],
      [
        "as",
        "ing"
      ],
      [
        "ce",
        "ed"
      ],
      [
        "Ġbro",
        "ther"
      ],
      [
        "wo",
        "od"
      ],
      [
        "em",
        "ents"
      ],
      [
        "ign",
        "ed"
      ],
      [
        "Ġcom",
        "ment"
      ],
      [
        "l",
        "in"
      ],
      [
        "Ġl",
        "ik"
      ],
      [
        "st",
        "it"
      ],
      [
        "Ġb",
        "orn"
      ],
      [
        "Ġf",
        "if"
      ],
      [
        "Ġ201",
        "5"
      ],
      [
        "Ġs",
        "ite"
      ],
      [
        "Ġl",
        "ive"
      ],
      [
        "Ġwork",
        "s"
      ],
      [
        "Ġl",
        "oss"
      ],
      [
        "ĠFran",
        "ce"
      ],
      [
        "Ġb",
        "omb"
      ],
      [
        "Ġwork",
        "ed"
      ],
      [
        "fic",
        "ult"
      ],
      [
        "Ġhe",
        "avy"
      ],
      [
        "Ġm",
        "iss"
      ],
      [
        "Ġp",
        "red"
      ],
      [
        "Ã",
        "¡"
      ],
      [
        "ĠS",
        "chool"
      ],
      [
        "med",
        "i"
      ],
      [
        "ra",
        "p"
      ],
      [
        "Ġsub",
        "sequ"
      ],
      [
        "Ġl",
        "ack"
      ],
      [
        "Ġpart",
        "y"
      ],
      [
        "Ġpro",
        "blem"
      ],
      [
        "nd",
        "er"
      ],
      [
        "le",
        "ction"
      ],
      [
        "Ġdif",
        "ficult"
      ],
      [
        "Ġcl",
        "ose"
      ],
      [
        "ĠW",
        "ash"
      ],
      [
        "Ġconst",
        "ruction"
      ],
      [
        "Ġkn",
        "ow"
      ],
      [
        "ĠN",
        "or"
      ],
      [
        "ĠS",
        "ome"
      ],
      [
        "Ġrelations",
        "hip"
      ],
      [
        "Ġh",
        "ost"
      ],
      [
        "Ġweek",
        "s"
      ],
      [
        "ist",
        "ic"
      ],
      [
        "ĠS",
        "an"
      ],
      [
        "Ġorigin",
        "ally"
      ],
      [
        "Ġse",
        "par"
      ],
      [
        "Ġass",
        "oci"
      ],
      [
        "ar",
        "ch"
      ],
      [
        "c",
        "o"
      ],
      [
        "Ġup",
        "on"
      ],
      [
        "Ġpr",
        "act"
      ],
      [
        "Ġre",
        "b"
      ],
      [
        "ĠHen",
        "ry"
      ],
      [
        "Ġlead",
        "ing"
      ],
      [
        "Ġapp",
        "oin"
      ],
      [
        "Ġacc",
        "om"
      ],
      [
        "Ġv",
        "ill"
      ],
      [
        "Ġal",
        "most"
      ],
      [
        "Ġm",
        "er"
      ],
      [
        "ĠRober",
        "t"
      ],
      [
        "ort",
        "s"
      ],
      [
        "Ġpe",
        "ak"
      ],
      [
        "ĠA",
        "le"
      ],
      [
        "Ġin",
        "j"
      ],
      [
        "Ġdam",
        "age"
      ],
      [
        "l",
        "ic"
      ],
      [
        "un",
        "k"
      ],
      [
        "Ġsc",
        "ored"
      ],
[...]
